#version: 0.2
Ġ t
h e
Ġ a
i n
Ġt he
e r
o n
Ġ ,
r e
Ġ s
e d
Ġ o
Ġ w
n d
a t
Ġ .
o r
i t
Ġ c
e n
Ġ f
i s
e s
a r
Ġo f
Ġ b
a n
Ġ in
a l
in g
Ġ p
Ġa nd
a s
Ġt o
r o
i c
Ġ m
Ġ d
Ġ h
i on
l e
o u
Ġ T
Ġ re
Ġ =
Ġ "
Ġ A
Ġ S
en t
i l
Ġt h
Ġ 1
s t
Ġ C
e l
o m
Ġ l
a m
Ġ Ċ
Ġ e
Ġ n
Ġ @
a d
a c
Ġw as
Ġ M
u r
ĠT he
e c
Ġ on
l y
Ġ B
Ġ I
Ġ g
Ġ '
e t
o l
i d
i v
i m
Ġf or
i r
- @
Ġ@ -@
i g
o t
t er
Ġa s
Ġ H
u s
o w
Ġs t
u t
it h
a y
Ġ 2
Ġ P
at ion
v er
Ġb e
he r
Ġth at
Ġw ith
Ġ R
c e
t h
Ġ D
Ġ is
u n
e m
Ġ F
Ġw h
u l
Ġb y
Ġa l
c h
Ġ )
Ġ (
Ġ W
Ġc on
r a
Ġ G
o s
Ġ L
Ġ N
Ġa t
er s
c t
Ġ it
Ġ1 9
ro m
a nd
Ġa n
u m
es t
Ġ J
a g
Ġ he
0 0
is t
a in
o d
a v
r i
Ġ E
Ġ O
Ġf rom
Ġc om
Ġh is
o p
Ġp ro
re s
i es
i f
Ġ v
or t
er e
il l
l d
Ġd e
p p
Ġs u
o re
ĠI n
Ġ r
Ġs e
Ġw ere
e w
on g
ig h
ar d
at e
al l
ar t
a k
ic h
Ġc h
Ġo r
a b
an t
u d
o c
b er
Ġe x
g h
it y
at ed
p t
es s
e ar
Ġ K
Ġp l
am e
q u
iv e
ro u
Ġa re
Ġ â
Ġs h
Ġ k
ac k
ec t
Ġâ Ģ
Ġ U
Ġh ad
s e
Ġwh ich
re d
o v
ĠS t
as t
Ġs p
i an
Ġ y
m ent
Ġ le
Ġn ot
g e
or d
r it
i p
in e
el l
al ly
ou r
o st
igh t
t her
a p
Ġ u
is h
ĠC h
ou n
i a
Ġ 3
av e
ar y
u st
o g
Ġ2 00
Ġ un
ou s
ir st
Ġ V
c c
Ġin c
Ġ ;
Ġcom p
r u
ion s
Ġthe ir
Ġb ut
id e
u re
s o
Ġcon t
Ġin t
f ter
ic al
i al
Ġa r
Ġf irst
ou ld
Ġit s
he d
ĠâĢ ĵ
Ġw he
w o
ou t
u b
Ġ2 0
f f
Ġ :
u e
Ġ her
ow n
o k
Ġal so
Ġc l
p er
ig n
at er
r an
or m
i e
om e
or k
as s
i re
e nd
Ġre s
Ġa b
Ġa d
Ġ us
r y
Ġre c
Ġh ave
ag e
ĠH e
Ġ 4
Ġ ro
m er
Ġon e
on d
l ow
Ġh as
ĠT h
d u
Ġ 5
Ġp er
Ġbe en
im e
Ġt wo
en ce
l and
Ġ1 8
. @
Ġ@ .@
ul t
re e
ou gh
i le
Ġwh o
ĠA l
Ġs c
ur ing
p l
or y
it ion
r ic
ation s
Ġd is
Ġth is
Ġb ec
Ġa pp
i z
ĠI t
a re
ac h
l ud
ad e
Ġpl ay
Ġ j
Ġm an
ac t
el y
Ġp art
Ġd es
Ġa g
Ġthe y
Ġy ear
oun t
Ġ20 1
Ġo ver
Ġo ther
ou nd
Ġa fter
i b
o ver
Ġs er
Ġ en
Ġof f
Ġ im
ct ion
Ġ Y
k e
it e
, @
Ġ@ ,@
t e
ur n
Ġinc lud
res s
an ce
an g
Ġat t
ic e
ac e
ar k
Ġo ut
w n
p h
em ber
Ġp re
Ġu p
en s
m an
Ġe v
Ġt ime
nd er
rou gh
c ed
Ġf in
Ġint o
on e
p ort
rou nd
w e
re n
l es
in t
ĠO n
v el
Ġcom m
Ġs he
as on
am p
Ġt e
Ġw ould
w ard
Ġm ore
Ġ 6
i ed
os e
ri b
ĠU n
Ġal l
ing s
ter n
c es
ab le
Ġw e
it ed
e ver
ent s
Ġh im
as ed
or s
o y
o od
Ġc ent
i x
as e
il d
ĠA n
Ġ 7
Ġw ork
at es
i ous
at h
Ġp o
ro p
ol d
al s
is s
e y
ic t
Ġf e
Ġthe m
g an
Ġs ec
Ġb et
Ġwhe n
Ġs ong
Ġre m
e p
f orm
a il
f er
Ġe ar
ub l
a w
Ġk n
ak e
a us
Ġm ost
Ġcon s
Ġd uring
ĠA s
or th
Ġn ew
er ed
il m
v ed
at t
Ġon ly
Ġ 9
Ġd ec
Ġ 8
ic k
Ġg ame
on s
u g
Ġt r
f t
ot h
o ok
ĠM ar
re at
w ay
Ġc an
ol low
ou th
we en
ĠE n
Ġ19 9
ter s
Ġre l
in d
Ġab out
Ġse ason
Ġag ain
r al
Ġth ree
ation al
Ġu nder
ul ar
Ġm e
Ġth an
ĠC om
ĠA r
h ip
o b
Ġn e
Ġbet ween
Ġf l
h n
v e
Ġch ar
Ġc ol
Ġrec ord
i ew
r on
f ore
Ġth rough
is ion
or n
Ġ 00
oc k
Ġ ver
Ġl ater
Ġn um
Ġe nd
ol og
am es
Ġp os
Ġw rit
Ġpro du
Ġwh ile
Ġa ct
Ġre le
Ġf ilm
is hed
Ġp r
an s
Ġre g
Ġfor m
Ġas s
ĠS e
ur y
t ed
t s
Ġm ade
Ġsu b
Ġp e
Ġs o
or ld
Ġre t
ĠN ew
Ġsp ec
Ġa cc
Ġ qu
Ġwhe re
en er
Ġm ov
he s
mer ic
at ing
Ġin ter
ĠL e
ĠA meric
Ġ ra
Ġs ome
Ġc o
Ġl ar
Ġb u
Ġde f
b um
Ġa c
Ġm us
Ġf ollow
ĠA t
in s
iv ed
if ic
u al
Ġa m
Ġsu ch
Ġsec ond
i ke
Ġf our
Ġin d
an n
he n
Ġus ed
ĠR e
ic s
le ct
Ġd ay
i el
il y
ĠTh is
Ġ 0
Ġp ubl
Ġc all
ĠJ o
l l
Ġal bum
Ġ00 0
ran s
Ġd o
an y
Ġbe fore
ro s
ĠS h
Ġs y
a id
ĠEn g
Ġbe ing
Ġ1 0
u c
Ġe p
Ġsu pp
Ġthe re
Ġyear s
ar s
ow ever
Ġ ent
if e
Ġh igh
Ġf ound
ir d
Ġn o
Ġs et
in es
iv er
i o
ot her
j ect
Ġs ur
a j
t en
Ġt ra
Ġ1 2
is ed
it ies
vel op
Ġb l
al e
Ġser ies
Ġl oc
Ġnum ber
Ġp res
an e
aus e
od e
e k
t on
ĠS c
i er
is e
Ġse ver
in ce
Ġb oth
an k
ro w
ire ct
s on
Ġthe n
ĠB rit
i et
Ġ1 6
Ġep is
Ġinclud ing
it s
ig in
p r
Ġ /
Ġagain st
Ġw ell
Ġbec ame
Ġex p
Ġkn own
Ġt rans
Ġchar ac
ĠâĢ Ķ
r am
Ġb ack
Ġad d
Ġp op
Ġg o
ur ch
Ġdes c
Ġs ing
iel d
Ġper form
ain ed
Ġre ce
id ent
Ġe m
er t
u res
Ġin v
Ġde p
Ġ19 8
a ir
er n
at her
f ul
Ġ Z
Ġm on
Ġman y
Ġm ain
Ġst ud
Ġl ong
in n
th ough
u p
o ol
ĠUn ited
l ed
em ent
Ġ1 5
ow er
ĠJo hn
Ġo p
Ġ1 1
in ed
Ġm et
o ber
le y
Ġ1 7
Ġcent ury
Ġte am
Ġ est
ĠA fter
y l
Ġm in
u ch
ut e
Ġde velop
ĠS he
i am
Ġsh ow
el f
Ġre p
Ġcon c
at ive
Ġc re
over n
a red
Ġ19 4
Ġor igin
Ġs m
iv ers
a z
Ġle ad
Ġsever al
a h
Ġo b
Ġre v
Ġm ill
er m
u ally
o ot
Ġbe gan
Ġ19 6
i red
Ġd if
Ġcont in
Ġs ign
i k
ĠI nd
ment s
iz ed
Ġ19 7
Ġd irect
a u
Ġex t
ros s
em b
d er
Ġp ol
Ġm ay
a pt
el s
ĠW h
Ġcomp le
Ġar t
ĠB r
ĠI s
un e
t il
Ġc rit
Ġh ist
Ġear ly
Ġc ould
ĠC on
Ġd id
Ġb el
Ġcall ed
u ed
Ġn ear
Ġepis ode
y p
Ġdesc rib
im es
Ġb ro
rou p
op le
Ġd own
Ġr un
ak ing
Ġdis c
Ġal ong
cc ess
ĠM ay
Ġfe at
Ġin st
ĠAmeric an
Ġs aid
Ġd ist
Ġin f
Ġim p
in k
Ġin s
t y
Ġthe se
Ġm il
v en
ĠG er
g est
i um
en n
ĠB l
ĠA ust
Ġres p
ul l
ru ct
u red
Ġth ough
Ġsh ip
ov e
Ġo per
ĠBrit ish
Ã ©
Ġun til
Ġpre v
it t
am ed
Ġc ar
ce pt
Ġst art
Ġc ity
Ġg ener
Ġs ame
ain s
ĠW ar
ist s
i ally
id ed
Ġrele ased
Ġl and
is m
ĠC ar
Ġo wn
Ġw ar
Ġan y
Ġpro v
Ġret urn
Ġa ir
ĠThe y
x t
ers on
om an
Ġmus ic
Ġk m
Ġdes ign
aj or
ĠP l
ib le
os ed
Ġs im
Ġcon st
Ġapp ear
Ġmill ion
Ġbec ause
Ġf am
as h
Ġm at
Ġare a
Ġus e
Ġ1 3
ĠA ug
ĠCh r
ĠAug ust
Ġo cc
Ġp h
Ġop en
Ġl ike
on y
Ġsu ccess
o le
ou se
er v
Ġc ount
Ġp ass
os s
Ġe ff
Ġpe ople
m y
ch ool
u nd
ĠS p
st em
ĠC l
Ġoff ic
et s
Ġs ix
ut h
an ge
u es
Ġ19 5
Ġsupp ort
Ġa round
Ġsm all
ĠC ol
ĠH owever
ĠSe pt
Ġd am
Ġ %
Ġad v
Ġm od
Ġe le
Ġn orth
ĠJ u
al es
Ġhe ad
i ent
Ġg overn
Ġg roup
ra ph
Ġcharac ter
Ġb r
Ġg r
Ġ ed
Ġe ach
Ġpo int
ĠSept ember
ĠA d
ward s
Ġcons id
ut ion
ĠD e
ĠGer man
Ġfollow ing
ĠW orld
Ġl ife
Ġg u
ĠCom m
ĠAl l
ĠAust ral
an c
Ġan n
Ġcont ro
ur al
Ġf ive
Ġv ar
y s
ĠH er
ĠU S
Ġatt ack
g ed
Ġ19 3
ord ing
Ġres ult
Ġw ill
in a
c k
Ġ Q
Ġe ver
ĠP ro
Ġ19 1
ĠE u
Ġlar ge
ĠM e
ĠI I
l ish
ĠN orth
l ing
Ġb ook
Ġre port
on t
ag ue
ĠF ran
b le
ĠF or
o x
ac ed
he l
ĠJ une
Ġt it
end ed
d om
il t
iv es
Ġ1 4
at s
Ġp rom
e b
m ed
Ġwe ek
at ely
av ing
ore d
Ġst r
ĠJ an
Ġs ince
ĠSt ates
Ġfin al
Ġm ajor
a x
Ġs outh
Ġrece ived
ĠS outh
iv ision
ĠG u
Ġn ame
Ġpart ic
er y
Ġhe l
olog y
pt ion
ĠChr ist
Ġc are
ĠO ct
Ġpubl ic
Ġre st
Ġsy stem
ect ed
il ity
ĠB e
t ing
ĠK ing
Ġst ate
Ġb att
a e
Ġwh at
ag es
u ary
Ġl ast
ra nd
Ġdescrib ed
ĠOct ober
Ġl ine
Ġcl ass
Ġ $
Ġd et
iv ing
ra ft
ĠN ov
Ġplay ed
Ġpro t
Ġinc re
a ur
rop ical
Ġto ok
Ġm ar
Ġn ow
if ied
a im
ĠP ar
ion al
g et
ro te
ant s
od y
Ġ [
Ġ ]
iv ely
ĠY ork
Ġbu ild
Ġw orld
. .
Ġl ate
ĠD ec
y c
Ġ2 5
ĠJu ly
Ġw rote
em pt
b all
b y
es p
ĠEu rop
re t
Ġw on
a pp
ide o
Ġspec ies
s ion
Ġch ild
ian s
Ġ. ..
om et
i od
Ġp ort
Ġm uch
ĠC an
ĠD uring
Ġcon f
Ġser v
Ġc amp
ect ion
Ġre f
Ġd ue
ec h
Ġsh ort
ar n
Ġal low
Ġsing le
ĠA pr
ĠApr il
Ġdif fer
Ġj ust
Ġde ath
ic ally
r act
Ġst ar
Ġs l
Ġg un
iss ion
om in
it al
ĠM c
ĠA nd
Ġan other
Ġinclud ed
ĠM us
Ġpos s
a i
Ġo ld
Ġt ri
h am
Ġst orm
ĠG e
Ġv is
ĠJan uary
Ġ3 0
Ġl ist
Ġle ft
Ġev en
Ġp ar
Ġwith in
ĠEng land
p le
Ġpro g
Ġapp ro
g er
it ions
Ġn amed
op s
Ġb ased
Ġest ab
Ġ if
in c
Ġal though
Ġatt empt
Ġto p
il ar
Ġtr ack
Ġver y
Ġbel ie
Ġb re
Ġth ird
ard s
Ġh um
Ġw ater
ĠMar ch
en e
Ġg ames
Ġor gan
c hed
or p
ent ly
Ġbe g
Ġp ower
Ġev ent
Ġprev ious
Ġfam ily
Ġs chool
m s
Ġb est
ur ric
ul ation
ĠNov ember
an ces
Ġper iod
Ġrev iew
Ġw ay
ĠH is
Ġm en
as ter
Ġex pl
Ġh ome
ĠEurop e
Ġf ur
qu e
Ġgovern ment
Ġt yp
ĠB y
ĠP h
i ence
Ġt urn
Ġ19 2
ĠDec ember
le t
at ure
Ġc ap
Ġth ose
Ġh and
ĠThe re
av y
Ġpl ace
ac hed
Ġm ed
he st
ĠC ity
Ġst ory
o int
ag ed
Ġbu ilt
ed er
am b
Ġg reat
en se
Ġd r
en ces
Ġp erson
iv en
Ġcomm and
Ġ1 00
Ġk ill
ĠF l
ĠW hen
oc i
Ġmon th
Ġs ent
it ary
el t
Ġo pp
Ġm ake
Ġorigin al
ivers ity
o ad
Ġ Â
Ġh al
Ġre qu
v es
id es
ĠP r
ĠN ational
Ġen g
g y
n ess
ent ion
Ġ200 9
ĠO r
Ġ201 0
Ġa uth
Ġv ideo
Ġ200 8
b s
Ġan t
is on
Ġm ark
Ġd em
Ġsu g
ru ction
ak es
Ġpres ent
l ine
Ġle g
Ġcl ub
ĠM an
ĠR iver
ren ch
iv al
Ġv iew
ĠB ro
ri end
o ard
Ġre pl
og raph
Ġc apt
al k
Ġst ill
Ġmov ed
Ġloc al
Ġst and
en g
Ġl ed
Ġro le
ot t
ain ing
l er
Ġt erm
Ġc ame
ak en
Ġd est
Ġis s
or ies
un g
s ide
id ge
m p
Ġd ra
Ġof ten
Ġcomm on
Ġadd ition
Ġhist ory
urric ane
Ġc aus
le v
s h
ĠCom p
at ter
Ġtr ad
re w
Ġf ew
ĠN o
ĠW e
ĠCh ar
Ġsug gest
l u
re ad
is ter
ĠA b
Ġ200 7
Ġne xt
Ġeff ect
Ġconsid ered
Ġb as
Ġde b
Ġplay er
ĠOn e
i or
Ġc our
as tern
Ġm id
ĠT r
ĠEng lish
Ġhel p
e ad
Ġex per
ut ed
ĠF rench
Ġcare er
Ġs ide
Ġsim ilar
Ġrecord ed
ĠB att
ay s
Ġr ight
Ġ X
Ġw in
Ġin it
Ġim port
ĠA cc
Ġre al
s elf
ĠR ec
Ġcl aim
Ġc over
Ġar ch
Ġcomp any
b e
in ing
Ġto wn
Ġpubl ished
Ġs old
Ġcontin ued
Ġre fer
Ġex c
Ġw ind
Ġdiffer ent
Ġy ou
Ġt ake
Ġwith out
tern ational
Ġsong s
ĠW ith
y n
Ġto t
ĠP er
ĠP ort
Ġro ad
Ġfor mer
Ġ2 1
Ġpol it
Ġt w
Ġt em
ĠB ar
Ġhe ld
c hes
ĠT e
Ġm emb
Ġam ong
Ġle vel
Ġ el
ĠW ill
n ing
Ġf ield
Ġm ag
p ar
Ġe lect
n er
im ent
Ġa v
it ar
Ġd el
us s
Ġpro p
Ġwrit ten
inn ing
it er
res ent
Ġever y
ĠA m
ĠSt ate
es tern
Ġ2 3
ĠE ar
Ġcomm un
Ġhal f
le ar
y le
ĠD ivision
amp ions
Ġ201 1
Ġrele ase
ri ed
Ġfur ther
ot s
Ġbec ome
Ġw est
Ġ200 6
ens ive
ĠAcc ording
Ġc r
en c
ro du
Ġch urch
ĠAl though
Ġstr ong
Ġf ore
Ġh owever
Ġday s
ro y
Ġfin d
ĠCan ad
Ġc ur
ic es
Ġe ast
is ing
ĠC ount
Ġver sion
Ġf oot
Ġbe h
Ġsp e
au gh
Ġpartic ular
er ing
Ġ &
Ġm y
Ġl ow
ĠCh urch
iz e
eb ru
ĠG ener
Ġpro f
Ġcomp et
Ġpos ition
Ġtit le
Ġ2 4
ĠW est
Ġmil itary
ĠR oman
Ġcon v
Ġauth or
Ġ2 2
Ġ2 6
Ġapp e
re en
Ġor der
ĠLe ague
ou ther
Ġs ol
ron t
itt le
Ġcontro l
outher n
Ġt imes
ĠS ong
ac es
f ric
Ġb and
ĠF ebru
ĠFebru ary
Ġf re
pp ed
Ġl ess
Ġg ave
Ġpro ject
Ġv ict
Ġdef e
yl an
ĠGe or
os p
ĠAs s
Ġ !
ĠD ylan
Ġch ang
Ġreport ed
Ġmemb ers
Ġn ort
ĠP ark
ric k
Ġn ov
Ġprodu ced
Ġst at
lev ision
Ġtot al
is c
ar m
et er
her n
Ġ201 2
ay ing
ĠO ld
Ġar r
iet y
Ġc ult
Ġpop ular
Ġt er
Ġf ire
es c
oun g
ail ed
Ġprodu ction
ur s
ap an
Ġob s
Ġt ropical
he m
ĠS im
Ġ2 8
ĠP ol
ress ion
Ġp ost
Ġfor ces
ĠSt e
Ġcrit ic
f ord
ĠH a
ĠJ apan
Ġchild ren
Ġhist or
Ġp at
Ġh aving
us h
ĠE d
Ġinclud e
al d
ec hn
r ing
our s
Ġsur v
Ġinv ol
Ġinf lu
al ion
n e
Ġs k
Ġl ost
ren t
Ġa ff
at ic
ĠS u
Ġg iven
Ġcount ry
Ġw ant
ab ly
Ġrep resent
w ork
ĠE l
Ġsign ific
ĠC ent
om en
ĠD av
Ġman ag
op e
pl oy
ĠGener al
Ġp ress
Ġe qu
ver s
Ġ201 3
g es
Ġe ight
ĠM iss
Ġcom b
re et
Ġs it
Ġs ite
ad es
Ġse en
ir c
Ġprog ram
s p
on es
o on
Ġm aking
ĠA fric
Ġn ever
Ġmat ch
r ation
Ġf em
Ġst ated
Ġestab l
Ã ¡
it her
Ġb ody
Ġpl an
Ġf act
Ġre ad
Ġor d
Ġsh ould
ĠWh ile
ĠE v
se qu
Ġ5 0
Ġreturn ed
f ic
at or
ĠUn iversity
olog ical
Ġs oc
Ġf t
a un
Ġ er
Ġs ound
Ġ19 0
Ä ģ
re m
Ġh ow
ap e
ĠThe se
Ġg en
Ġis land
ĠN e
ĠAmeric a
Ġc ou
Ġst ruct
Ġear l
Ġship s
Ġann oun
Ġestabl ished
ampions hip
Ġg od
Ġg round
ĠJ ack
Ġch art
Ġpop ulation
a ff
re am
Ġc at
Ġd iv
Ġre ached
Ġj o
g round
Ġ2 7
n a
v iew
re land
Ġl ight
Ġnot ed
a ul
k i
Ġa way
Ġf riend
ĠI reland
ĠBl ack
il le
ig ade
us ed
um ent
in ation
ff ic
es e
Ġl im
ol l
Ġthrough out
Ġac ross
ĠRe g
Ġdevelop ed
Ġthough t
i ec
ĠM ich
ĠL ond
Ġse ven
Ġs omet
Ġc ast
ain t
ord s
st er
Ġg l
Ġpro c
ĠWill iam
ĠLond on
Ġp ra
Ġr ad
Ġint rodu
a f
Ġg ood
ĠF eder
Ġus ing
Ġhim self
Ġdevelop ment
Ġbl ack
in ess
om b
Ġh ig
ĠH ar
Ġf elt
id ence
ree k
ĠAustral ia
Ġhum an
Ġsignific ant
Ġ ide
ĠA ir
ut es
are n
Ġw at
Ġperform ed
Ġb ar
um p
Ġimport ant
m ost
iv il
ĠG l
Ġad m
ĠAt l
it ive
Ġn ight
Ġwrit ing
Ġf un
ĠP al
ĠR ich
ĠE x
Ġdest roy
Ġf ather
ĠM ag
Ġmil es
Ġb o
ant ic
Ġte levision
ĠR oy
Ġinter est
Ġvar ious
os aur
Ġare as
ie f
Ġto ur
im ately
Ġwh ite
Ġmod ern
Ġf ull
f ield
Ġt en
Ġd ied
ĠC al
Ġl ook
ri e
og n
Ġen c
Ġact iv
a el
a ign
Ġw ent
Ġl aw
ĠR ober
Ġne ed
Ġt ro
Ġev ents
Ġpr im
Ġdo es
Ġsuccess ful
ĠR oad
ic o
Ġre d
iz ation
Ġdisc over
Ġplay ers
Ġstart ed
Ġm m
ĠT o
ra b
ĠJ ames
Ġdec l
c on
re g
Ġb all
ri pt
Ġse e
it ing
Ġh ouse
Ġfe et
Ġform ed
k s
Ġw id
our n
Ġpo em
Ġt echn
Ġm ix
Ġr ange
ĠM ount
Ġset t
Ġperform ance
ĠCount y
re st
Ġp ut
Ġst yle
Ġv ill
Ġrel ations
Ġbuild ing
Ġa ge
Ġs um
Ġto o
Ġfor ce
ab or
Ġcaus ed
Ã Ń
an a
Ġk e
in o
ep end
ar a
ĠY ou
al th
ĠK e
ubl ic
Ġs w
en ed
ĠC ro
Ġnov el
Ġp ri
i ers
ist ed
Ġ18 9
Ġcre ated
Ġoffic ial
d ay
f all
id d
ell ing
as ing
ĠS om
Ġ200 4
ĠAn g
y m
Ġp it
Ġ200 5
Ġrel ig
Ġent ire
g r
l ess
Ġs on
al ity
et h
ĠO l
Ġab le
Ġco ast
Ġpolit ical
ĠH igh
ri es
ress ed
Ġcharac ters
ĠS ec
Ġst e
in al
Ġg et
ĠH am
Ġother s
Ġconst ruction
Ġc ert
Ġb ird
Ġp red
Ġprom ot
as es
Ġbatt le
b r
ĠT own
Ġn ational
way s
ac y
Ġocc ur
om ing
Ġv al
ĠâĢ Ļ
Ġf ig
ĠS w
amp le
Ġl ik
am ent
Ġon ce
ĠH ist
pl ay
fic ult
Ġf ac
Ġrem ained
p or
ĠC are
ĠB ra
Ġloc ated
Ġm ount
Ġtrad ition
ent h
iv id
Ġro ck
Ġsc ored
Ġwork s
Ġdif ficult
ĠKing dom
c raft
Ġre du
Ġ3 1
Ġprodu c
lect ed
ĠIs land
Ġcamp aign
Ġgun s
Ġt re
Ġc ross
ĠC up
ĠM on
Ġst ars
ĠG rand
Ġme et
Ġcomple ted
ĠAustral ian
Ġannoun ced
Ġr ank
Ġreg ion
Ġh old
et t
Ġs qu
or se
Ġn uc
oun c
o ff
it ted
Ġg row
Ġsu per
Ġcol le
Ġgo al
ĠComp any
i que
o id
Ġf av
ar ch
Ġl ittle
Ġcon n
um b
Ġle t
Ġproc ess
r ay
en ced
Ġf ight
Ġf ront
al y
om p
rough t
Ġinst ead
ĠA ct
k y
Ġc irc
Ġ2 9
Ġadd ed
he re
le et
ĠM or
Ġcon d
om m
Ġle ast
du ct
Ġfollow ed
ĠB ill
Ġkn ow
Ġpe ak
Ġappe ared
Ġb orn
Ġkill ed
Ġs outhern
ang u
Ġorigin ally
Ġmonth s
o ice
Ġw ife
ur b
Ġcom ment
ĠAr my
Ġst ri
ĠDav id
m ar
Ġf if
Ġm other
Ġl oss
ot a
Ġ4 0
Ġstud y
i us
Ġh urricane
Ġass oci
Ġw omen
Ġc ell
ect s
ĠMus ic
Ġ ident
Ġm ass
st on
Ġe astern
Ġn on
Ġse x
ant ry
Ġag re
Ġrelations hip
Ġa ud
Ġa ward
Ġ200 3
Ġcrit ics
Ġbro ad
yc l
Ġan im
Ġ18 5
Ġevent ually
Ġfeat ures
Ġprof ess
ol ution
ĠG od
ĠO ther
Ġv oc
Ġy oung
ap er
Ġrec ogn
Ġ201 5
g in
at a
Ġb us
Ġl ive
em ents
ul ly
ĠFran ce
Ġa ver
Ġfour th
Ġt aken
ĠS er
em y
Ġro ute
Ġest im
c her
ĠT wo
ĠB er
Ġser ved
l iam
o res
ist ic
as k
Ġcom mer
Ġpro te
ill a
Ġapp oint
ograph y
z e
ĠC o
om es
Ġl ack
ch ie
Ġdec ided
Ġdam age
am a
ĠM ad
un k
Ġhe avy
ign ed
az ine
Ġc or
Ġb ase
Ġe ither
ĠI m
ĠBatt alion
i ation
Ġf ar
Ġcon dom
Ġpro ble
Ġse par
Ġar m
Ġimp ro
Ġins p
v al
ĠP art
ough t
Ġspec ial
Ġbeh ind
ĠRober t
Ġto get
ic a
ec ut
ĠL ove
Ġcol l
Ġind ivid
Ġbelie ved
Ġtoget her
id a
Ġar g
Ġqu ar
enc y
liam ent
i pp
av es
Ġcl os
ict ion
ounc il
c ial
Ġm ater
ric t
Ġplay ing
ĠRoy al
ĠCare y
Ġb urn
Ġd ou
ĠR ed
ra p
ach ing
i ol
i ber
ĠM ed
Ġmov e
Ġ ir
Ġ round
Ġc reat
Ġb i
Ġl angu
ĠH en
ĠD u
Ġv ol
Ġde v
Ġex ample
Ġcl ose
Ġac cept
ĠMe x
g g
ĠS ome
ĠM in
Ġal most
Ġ18 8
al t
est s
Ġserv ice
Ġlead ing
ĠEurope an
Ġs our
Ġf all
ĠR ep
od es
ĠWh ite
Ġgener ally
ĠFeder er
Ġs aw
at ors
Ġc e
Ġto wards
Ġopen ed
Ġele ments
e al
Ġm iss
Ġ3 5
u ter
or ing
Ġb rought
ĠBr igade
Ġgener al
Ġweek s
Ġm ot
ĠP res
ce ed
ĠW ales
ĠG ame
ĠIn ternational
Ġfin ished
Ġdra w
Ġ z
st it
Ġl aun
ĠFl or
Ġw all
Ġh ost
op h
ĠK h
ĠV iet
Ġreg ular
Ġhigh way
Ġfeat ured
c ast
ĠI r
Ġcent ral
Ġair craft
le ment
ir l
end ing
Ġind ust
b oard
ĠE ast
ord an
oun ter
Ġres ear
Ġre b
et work
Ġcont ract
Ġpoint s
e um
Ġf und
Ġin form
Ġdirect ed
Ġ -
Ġa ction
Ġm i
ĠM o
ort s
Ġsu ff
ĠCh ampionship
Ġme as
Ġdirect or
Ġprov ided
h ing
Ġc ut
ic ated
Ġre n
ĠB o
ĠF ollow
ud e
wo od
Ġfl ood
Ġresp ect
Ġn ar
ĠJ ordan
Ġse qu
Ġup on
Ġme an
ent ial
ĠF rom
ĠG al
Ġappear ance
n ed
ĠJ ew
Ġy ard
ell ow
Ġ18 6
Ġearl ier
s el
y ing
at in
ĠP e
ĠR ock
ĠE m
Ġk ing
Ġc ost
ĠC r
Ġr ather
ight s
Ġ201 4
Ġsub sequ
Ġfem ale
ĠAtl antic
Ġtro ops
t t
Ġ Ã
Ġ ill
Ġre ve
Ġst ru
ĠO d
ish ing
med i
ĠChrist ian
Ġcur rent
ĠM ary
ĠO p
Ġv e
Ġr iver
Ġlar gest
Ġtra vel
Ġvict ory
ĠFollow ing
ĠH ouse
and er
Ġem ploy
Ġoper ations
ĠHer o
Ġparticular ly
ĠGeor ge
Ġmanag er
Ġa chie
er ous
ou ri
Ġpro b
u le
Ġfor t
Ġopen ing
Ġwant ed
v ing
Ġc op
Ġb ur
Ġ5 00
eng th
Ġnort hern
a ult
ĠM ac
id s
os ition
Ġex ist
Ġy ards
Ġev idence
ĠPl ay
á ĥ
it a
Ġf oc
Ġre ason
ĠS l
el er
Ġcon duct
ĠPh il
ĠFlor ida
e e
i h
o f
y d
he ad
Ġm ember
ĠW al
ren g
Ġpr act
uc k
v est
Ġs aying
om s
ĠB ay
ĠW il
and ing
ĠSt reet
Ġout side
Ġcre w
Ġallow ed
Ġposs ible
Ġeng ine
c o
w est
at ural
ĠM ost
ĠP aul
Ġacc ount
ĠOl iv
u el
Ġp ast
Ġm er
ĠM ark
ir th
Ġst age
Ġne g
ĠMc C
Ġh ours
Ġwh om
Ġresp ons
con om
Ġc ase
ing ton
ag o
art ment
ĠMiss ouri
Ġmater ial
b or
ill s
Ġ200 1
Ġdes p
Ġwork ed
Ġreg ard
Ġf ree
Ġm ach
Ġl ength
Ġn ec
ĠB ut
Ġg re
Ġst reng
Ġob ject
Ġter rit
ĠT ech
Ġg old
Ġpl ann
ap s
Ġwork ing
Ġn omin
ver t
em s
l us
v ille
ar ies
ĠS an
Ġl ove
Ġr ul
Ġpo or
Ġqu ick
Ġdesign ed
c ent
n ow
u k
ar i
ĠV ir
ĠQ u
Ġfoot ball
on st
Ġm ult
Ġh on
ur t
ĠB us
Ġle arn
ĠInd ian
Ġconst ruct
Ġpra ised
p s
Ġ esc
Ġt reat
ĠT or
ĠB est
Ġfor ced
Ġst ation
ĠD ay
ĠF irst
ess ion
Ġrem ains
Ġav ail
r ated
it es
id ing
Ġv iol
ĠV al
Ġ18 7
Ġgo als
Ġ197 0
ĠMich ael
u ation
Ġth ink
gy pt
Ġwind s
he ast
Ġc ivil
ĠS m
ĠS qu
Ġab ove
Ġdis s
Ġinv est
Ġincre ased
Ġp ers
ĠH el
ĠF e
ĠE gypt
hen s
Ġprevious ly
ĠÂ £
w h
it z
ĠD esp
ul a
pp er
ĠTh om
Ġso on
Ġrepl aced
Ġcommer cial
as ion
rib uted
ĠRich ard
B C
g l
er ved
Ġm ust
ĠA c
ĠA g
ĠA pp
Ġas k
ĠG r
Ġinter view
Ġmain t
ĠSu per
Ġbus iness
on c
Ġc lear
Ġp ain
st e
ol ic
ĠW he
ri ption
ĠDesp ite
ĠC orp
Ġl y
ĠD ep
os ing
ab it
Ġwrit er
ĠQ ue
ĠBro wn
Ġquar ter
m ing
Ġt rib
Ġth reat
ĠM ont
Ġ200 0
Ġun c
ĠÂ °
ĠHen ry
A F
at ory
an ia
Ġm ph
ĠO s
Ġun its
one y
ĠCanad a
Ġestim ated
Ã ³
Ġp en
ul f
if f
ak er
ib ility
Ġ199 0
Ġspec ific
Ġcour t
ĠOld ham
f ace
Ġp ur
Ġre act
ac ing
Ġ3 6
Ġclaim ed
ĠJapan ese
Ġjo ined
Ġhig hest
b and
m en
ĠT imes
ul ated
ch ing
Ġpl aced
Ġcont r
ĠCar ol
Ġinvol ved
ecut ive
ĠPres ident
f or
Ġw estern
Ġf ly
ĠS un
ĠG overn
Ġpr iv
Ġsign ed
Ġsuggest ed
le g
ĠM os
ell ed
Ġ4 5
Ġ18 3
Ġpart s
Ġsy n
ĠC ard
ĠM y
ĠG old
Ġint ens
ĠInd ia
ĠOliv ier
Ġt ru
Ġh ous
ĠS chool
th let
ĠL ater
Ġpro per
Ġch ange
Ġle ague
Ġits elf
ĠViet n
m b
Ġ esp
Ġin j
Ġd on
ĠC ong
ĠH all
Ġsh ot
Ġra p
ann a
Ġaver age
ĠMex ico
ĠIr ish
Ġt aking
Ġh ard
ĠN ot
um e
Ġavail able
Ġe y
ur g
Ġex cept
Ġsc ene
ron ic
Ġtrans port
Ġtrans fer
Ġbro ther
Ġbre ak
read y
Ġintrodu ced
Ġh it
ĠP ac
Ġwh ose
Ġhe av
Ġrecord ing
Ġvill age
Ġw ood
Ġst op
Ġr ace
ĠSt ar
ĠV ar
Ġsub ject
Ġra il
por ary
ĠThom as
g o
r d
x imately
Ġs low
Ġ6 0
Ġph ys
Ġgr ad
Ġrelig ious
Ġf r
Ġm em
Ġn etwork
ac hel
Ġg ra
Ġed uc
Ġto ld
Ġn ine
Ġn ames
ĠN Y
Ġab s
Ġrem ov
ĠBrit ain
Ġshow s
Ġ196 0
Ġdam aged
i qu
Ġt est
Ġc ru
ar ily
Ġp iec
Ġind epend
ĠSc ient
Ġincre asing
Ġturn ed
Ġcap ital
Ġsoc ial
ĠRep ublic
g u
Ġa p
or ation
Ġc al
en es
Ġl ines
Ġg ive
ĠH urricane
ĠP o
ĠG reat
Ġch ap
ĠTh at
ĠGu itar
Ġstruct ure
al ed
ĠM any
ĠAn t
Ġfe el
Ġnear ly
Ġdet erm
Ġappoint ed
Ġdesp ite
Ġs ize
Ġc ycl
od ies
ĠUn ion
ĠZ eal
Ġcomple t
Ġcommun ity
h ib
Ġ ?
Ġb ill
Ġin ternational
Ġd en
Ġd ate
Ġl iter
Ġe conom
ĠL a
ate g
ran g
Ġ18 4
ĠAr t
Ġsur round
Ġpass ed
Ġf ut
Ġm ight
ou l
ec ially
ir t
Ġwith d
ri an
ber t
hed ral
Ġsc ore
Ġim medi
ines e
Ġocc up
Ġestab lish
Ġdeb ut
Ġinit ially
osaur us
Ġcert ain
l ict
Ġw inning
Ġc as
Ġp ot
Ġto w
ĠM a
Ġal ready
ĠE ver
Ġde al
Ġdis p
Ġass ist
Ġgo ing
Ġpartic ip
Ġarch ae
ĠPac ific
Ġf ailed
ic ation
Ġst ates
ĠCh inese
ĠEar ly
ĠZeal and
f ect
h a
i res
Ġm ale
Ġd oc
ĠD on
ra g
ĠJ in
ab ility
Ġacc ording
Ġra in
Ġtra ining
Ġfore st
Ġlangu age
Ġprob ably
Ġesp ecially
d en
Ġf ood
ĠS ing
ĠC ath
ĠD r
Ġk ey
Ġ200 2
ific ation
Ġdep ict
Ġmin or
Ġiss ue
n el
Ġa ut
Ġd augh
ĠP ri
ĠF ilm
ĠL aw
Ġstud io
ĠII I
ĠT om
ad y
Ġfor ward
ĠP eter
Ġsp ent
Ġinclud es
fer ence
Ġarr ived
Ġord ered
ĠHist ory
ĠWhe eler
a ut
s hip
is es
ĠA wards
ĠS ch
il ities
av al
Ġar my
Ġen ough
Ġrem aining
Ġbl ock
Ġvis it
ĠCanad ian
ĠAng el
ste in
t ies
on se
Ġf ail
Ġd ro
ĠN avy
Ġsomet imes
Ġmix ed
b ack
l or
z z
Ġd i
ĠT er
ĠS oc
ow l
ĠR ose
Ġcom e
ĠU K
Ġcomple te
Ġappro ximately
Ġreview s
Ġrequ ired
ĠAss oci
or ial
Ġto uch
ĠC reek
Ġl ower
Ġl atter
qu ar
ran ch
ric s
Ġim m
Ġcent er
t o
ĠM er
ĠM et
ly mp
ĠP enn
ĠIn f
Ġrem ain
Ġbeg inning
ĠAfric a
d own
in ct
in ist
st ant
ĠH ol
ĠO lymp
ĠVir gin
Ġs em
Ġw oman
et ic
ĠSt ud
Ġj ourn
Ġdec ision
Ġprev ent
Ġlim ited
i est
r ack
u nder
Ġh app
Ġde ad
Ġ3 8
Ġus ually
Ġbet ter
Ġstud ents
Ġaddition al
Ġchang es
ĠReg iment
ed y
Ġst ay
ĠR out
ĠR achel
ĠN ort
ĠJ e
ab y
Ġpres ident
Ġem b
Ġrun ning
Ġresp onse
Ġs ch
ad ron
Ġend ed
Ġpos itive
Ġlar ger
ĠSc ott
Ġconc ern
g ar
er at
Ġm ention
ĠT V
ĠA ward
Ġ8 0
Ġqu est
Ġsupport ed
Ġtyp e
Ġmag azine
i os
u als
ĠF ort
ĠJ er
Ġnot es
Ġdep ression
Ġpol ice
ĠChar les
Ġpress ure
Ġpri or
o or
re ak
Ġw ide
Ġb irth
ent y
Ġcomp l
Ġam ount
Ġbird s
Ġsh own
Ġ199 5
Ġrel ated
ĠBill board
Ġf ace
um ents
Ġ7 5
Ġfeat ure
rie f
Ġfif th
Ġfut ure
r at
ar ing
ĠH ot
ĠU nder
Ġapp l
Ġ198 0
Ġprov ide
Ġdefe ated
c om
Ġc he
an i
Ġd er
il s
ĠC amp
ĠH ill
Ġst aff
Ġan c
art s
Ġdiscover ed
b ers
Ġs at
Ġs il
Ġs ection
ĠS y
ĠP at
ĠR es
ĠO per
if a
Ġtem per
ĠRout e
h ou
n ey
Ġc m
en on
Ġd oll
ĠB el
ĠF I
ĠW estern
ri age
ish op
Ġbec oming
ĠFran k
Ġfre qu
g ely
o o
ed ing
Ġw ord
ra el
ĠL ight
ĠCol le
ĠA rab
ĠR h
ĠW ood
and s
Ġv ot
Ġex am
ect or
ok e
ke y
oy s
Ġsmall er
u f
it te
Ġf low
Ġd omin
ĠT ur
id ents
un t
ra w
Ġint ended
Ġper cent
Ġsc reen
Ġcol on
Ġgroup s
Ġide a
ĠScient ology
w ell
in ent
Ġf ir
Ġf leet
as y
if orn
ĠY ear
Ġthem sel
Ġmost ly
Ġmet res
Ġconc lud
Ġdisc uss
ĠHa ifa
Ġrad io
Ġprofess ional
Ġthemsel ves
g en
s es
er a
an ies
ĠR uss
pl es
Ġ201 6
Ġmus ical
Ġsur face
Ġmin utes
Ġcapt ured
Ġrefer red
ĠCro at
Ġlik ely
u ing
an ish
ĠS ince
ĠM il
im ate
ce an
ĠO ver
ian o
Ġoff ice
Ġlar gely
ĠPar liament
Ġproble ms
ĠAssoci ation
r or
Ġt ry
Ġl ab
Ġl ink
ĠH ow
ra in
ĠU p
Ġu nd
Ġcont em
Ġind ic
Ġent ered
Ġmed ia
ĠPort ug
Ġsum mer
quar ters
is er
is ions
Ġm akes
ĠS ov
ĠN ic
ĠO tt
Ġsh oot
ĠV er
Ġen s
orn ing
Ġmov ing
ĠIs rael
ĠEar th
Ġobs erv
Ġbroad cast
Ġs elf
Ġp air
Ġcont ains
ĠCal iforn
Ġke ep
Ġconstruct ed
s en
Ġin n
Ġm oney
le x
ĠS am
ĠC ouncil
ĠB ey
Ġcon cept
Ġv oice
ĠIn ter
Ġse a
Ġ199 9
Ġp aren
ĠS ur
Ġn ature
iv a
ĠH aw
ĠR oss
ru it
Ġad op
yl v
Ġgu itar
Ġeffect s
Ġce le
ĠGal vest
ĠGalvest on
k an
er gy
Ġst ories
ĠCh ic
ony m
Ġ195 0
Ġgr ant
Ġmajor ity
Ġlist ed
Ġrank ed
ĠJew ish
he t
Ġcons ist
Ġcre ate
hest er
Ġexper ience
Ġresear ch
m a
Ġc le
ur ity
Ġle aving
Ġun s
Ġ7 0
Ġmet h
ĠBr ad
Ġcrit ical
Ġfav or
Ġsch ol
Ġb rief
Ġth us
ĠM art
ow ler
av en
Ġ3 3
ous ly
Ġsc ript
Ġear th
Ġcontro ll
Ġprim ary
erat ops
p ool
r ison
ou d
ĠS erv
Ġl ived
Ġal ways
ers hip
Ġde ep
ĠAn other
Ġunder st
Ġfilm s
Ġloc ation
ank s
Ġrun s
Ġoffic ers
Ġgod s
Ġagre ed
Ġly rics
Ġ ri
at ively
ch ange
te en
Ġra re
osp ital
Ġlaun ched
ĠCaliforn ia
d le
Ġc ounter
Ġd ed
ac hes
ĠP et
ill ery
ord er
land s
Ġatt ract
Ġpre m
Ġteam s
Ġmin ute
Ġcult ure
Ġquick ly
ĠCath olic
a wn
r as
Ġ x
Ġf ans
ĠM r
ĠI f
ĠF ore
ĠF orm
Ġme ant
Ġam b
Ġepis odes
Ġprop osed
Ġoccur red
ĠChic ago
l o
o ir
ĠS aint
Ġl o
im um
Ġwhe ther
Ġad apt
Ġ4 00
Ġass igned
Ġacc ess
Ġincre ase
A S
Ġc red
Ġd ram
Ġh op
ĠT re
ĠB ec
ĠL atin
um n
Ġ3 2
Ġpo et
Ġcan n
Ġprodu ct
Ġform s
Ġtra ffic
Ġappear s
Ġdefe at
Ġchang ed
Ġdestroy ed
i ant
Ġt ons
Ġl og
ĠB en
Ġas p
ĠN ix
Ġcomm ission
Ġtr ade
ĠEn ter
ĠAr ch
Ġlong er
ĠBatt le
ĠCent ral
Ġmean ing
m as
on ed
Ġb ound
an ced
ro l
Ġm om
ĠS ever
ĠC amb
ĠM ey
ĠH o
ort un
Ġr an
ĠAl ice
Ġj ob
Ġthem e
Ġnum bers
Ġpr inc
ĠSc ot
Ġ194 0
und red
Ġsold iers
Ġcompet ition
Ġnuc le
Ã³ n
e x
Ġb omb
Ġre ach
Ġg irl
th ing
ĠD j
Ġk il
Ġle ave
ĠIt al
Ġnew sp
Ġac qu
Ġcar ried
ĠTe x
Ġaward ed
Ġfoc us
ĠNort hern
t ar
Ġ3 00
Ġ199 8
Ġconc ert
Ġconsid er
Ġconduct ed
Ġpriv ate
Ġdaugh ter
N A
en ing
an as
ro wn
ĠT w
Ġn atural
ow s
ĠJ am
Ġover all
Ġen v
Ġ9 0
Ġrecord s
ĠSec ond
Ġsubsequ ently
c ing
it ation
Ġc ause
Ġto urn
ĠT ra
Ġth ick
Ġe mer
ĠB C
im in
us band
ĠD el
ĠL iver
Ġde g
Ġpl ans
ĠV illa
ĠAl kan
Ġdis m
Ġ193 0
Ġant i
Ġfight ing
b ar
g a
l in
Ġ ult
Ġt akes
Ġs us
ed s
it or
it ude
Ġb ox
Ġre in
Ġl ay
Ġg raph
Ġk ind
ect ive
Ġwho le
Ġ199 3
Ġele ction
ĠPol ish
Ġinflu ence
Ġcomment ed
Ġdou ble
Ġindust ry
k en
Ġ +
ĠT ay
ĠT our
ĠM inn
Ġser ious
Ġfin ally
Ġbr ing
Ġask ed
ĠNix on
ĠLiver pool
Ġt ar
Ġd ig
Ġth row
all ed
Ġu pper
Ġcomp ared
ĠIt s
Ġj ud
Ġcent re
Ġend ing
ĠGeor g
ĠSom ers
stit ute
Ġgre ater
Ġmeth od
n y
Ġp urch
Ġd one
Ġre ject
ĠM al
ĠB ack
ol k
ĠL ady
ist ics
ell s
Ġun able
Ġ4 7
Ġfl ight
olog ist
Ġpos itions
Ġacc omp
itt ing
Ġmar ried
itte e
ĠTex as
I I
g ing
Ġo ur
Ġb ig
al ys
ĠH um
ĠF oot
Ġ3 9
ail y
Ġbuild ings
Ġperson al
Ġmark et
Ġstand ard
ĠMos ley
Ġrap id
ĠSomers et
ĠT ropical
ĠS ol
Ġg ot
ĠR ob
ag on
Ġy et
ĠV ict
Ġpart y
Ġear ned
Ġbook s
T V
Ġm or
Ġd ark
ĠT enn
ĠC our
Ġl iving
Ġhe ro
ĠO ut
ĠTh ree
Ġ199 6
Ġcol lect
Ġph ot
Ġconf lict
Ġbeg ins
Ġiss ued
ĠBus ch
c ar
Ġm ur
Ġd om
ĠS al
ad a
ĠB ob
ĠF in
ĠL ake
ri a
Ġdirect ly
Ġmark ed
Ġterm s
augh t
Ġtradition al
h ouse
Ġs al
um ed
Ġhe alth
Ġab and
Ġsc enes
ath an
Ġmov ement
ĠSp anish
ĠChrist mas
Ġmar riage
Ġstat us
ĠAfric an
ĠTay lor
re y
Ġp ath
ĠF owler
ber y
ĠComm and
Ġsl ight
Ġhelp ed
Ġfig ure
ĠSever al
r ical
it ch
Ġb atter
Ġp il
ĠC ross
Ġn orm
ad m
ad ed
ĠD em
ĠL ou
od on
ew ay
ĠSt orm
Ġsc hed
emb ly
Ġstart ing
Ġattack s
Ġschool s
Ġexper i
Ġinform ation
Ġsuff ered
Ġplann ed
b ury
an z
Ġh usband
Ġl if
ĠI ll
Ġg iving
ĠN or
ĠJ ust
Ġr h
Ġperform ances
Ġassoci ated
Ġinsp ired
Ġsour ce
ĠInf antry
ĠSov iet
i en
Ġd ivision
ce nd
ĠJ ane
if y
Ġpl ot
Ġcl osed
ound s
ib ly
Ġtrans l
ĠCon t
Ġpresent ed
Ġinit ial
Ġcondom s
ĠPart y
Ġmach ine
t ation
at re
ic an
ĠT rans
im b
ĠG o
Ġv ia
ĠIn n
Ġro om
Ġim age
Ġra ised
Ġpres ence
Ġpol ic
Ġgreat est
ĠSer ies
Ġeduc ation
a res
l ike
s ylv
u ff
er ve
Ġf ell
Ġin ters
Ġp ay
Ġh undred
ĠT em
ĠS ix
ĠC ast
ol f
ĠL ong
Ġch all
ect ions
Ġun it
Ġus es
Ġ4 2
Ġwrit ers
Ġcontin ue
Ġnear by
ĠCl ub
ĠPar is
orp or
ĠCarol ina
Ġdoc ument
ĠPenn sylv
ĠVirgin ia
Ġsus p
i ated
r ate
Ġp ark
ĠR am
ĠL ive
Ġpre p
iam i
Ġcomple x
Ġcover ed
Ã¡ n
Ġcolle ction
Ġcycl one
r id
Ġt alk
it ect
Ġh abit
ĠM ill
im ony
Ġcon ver
ess a
Ġsp ace
Ġcomp osed
Ġen j
Ġwe ap
inn er
Ġann ual
Ġserv ices
ĠAc ad
ĠQue en
ĠColle ge
ĠMey er
in y
Ġb odies
Ġre ally
et her
ĠW ater
Ġse v
Ġ199 7
Ġnum erous
Ġmet al
Ġext ended
Ġcommand er
Ġcat hedral
Ġwat ers
Ġfig ures
Ġproduc er
Ġterrit ory
onc Ã©
ĠBey oncÃ©
e en
t ain
Ġh ot
Ġth ings
ĠM iami
ur ies
ĠD an
ĠD am
ĠL o
ĠJ ose
ant a
pt ed
port s
ĠGerman y
ĠMus eum
Ġsomet hing
Ġvoc als
Ġprote ins
Ġindivid ual
p ed
z y
ĠThe ir
ĠG ames
ĠN ations
ip al
Ġ4 4
Ġfin anc
Ġart ist
Ġoper ation
rick et
Ġnec ess
Ġinvest ig
e v
u it
Ġt ax
Ġs af
Ġp ick
Ġm orning
est ival
ĠE r
ap o
Ġcomp anies
ĠTh rough
Ġhigh ly
Ġimp act
Ġattack ed
Ġdet ail
Ġattempt s
Ġrequ est
ĠSom al
Ġstreng th
ĠServ ice
d ing
p ole
v ement
Ġb ad
ĠC er
ĠC rit
om er
ad o
ad ium
ĠG ar
Ġrec over
Ġdis e
rib ution
Ġver s
Ġinter act
Ġsy mb
Ġart illery
Ġconf ir
Ġspe ed
Ġer a
Ġimmedi ately
adm ium
ĠPennsylv ania
t rack
at ives
is ation
is her
Ġp urs
Ġp iano
ĠA I
ĠC ons
ĠM ajor
Ġst one
ĠL i
Ġpl at
Ġsp ir
Ġdist ance
Ġallow ing
Ġtrack s
Ġpower ful
Ġsit uation
ĠJack son
Ġnuc lear
ĠSqu adron
Ġremov ed
Ġcele br
Ġkil omet
h ic
on na
Ġin tern
and id
ag ing
Ġr ate
Ġse lected
Ġse arch
Ġk ick
ip le
Ġ5 1
Ġoff ered
Ġsec ret
Ġbl ood
Ġstud ies
Ġins ide
Ġadv ance
Ġvar iety
Ġfriend s
Ġneed ed
Ġpeak ed
Ġsex ual
Ġpur p
ĠScot land
ĠVict or
Ġm ole
ou ra
ĠS ir
Ġn ative
ĠB et
ĠB oth
Ġst ra
ĠR ad
ĠL os
ri al
Ġ18 2
iz ing
Ġpre c
Ġte xt
Ġ199 1
Ġme ans
Ġco ach
ĠChr is
Ġcount ries
Ġhead quarters
Ġattempt ed
Ġcop ies
ĠFoot ball
ã ĥ
im s
ĠL and
Ġr ule
ĠCh ina
Ġsc oring
Ġadv ant
Ġhand s
Ġwid ely
Ġrespect ively
ĠOp en
Ġrespons ible
Ġcas ual
a en
h ood
w are
al ty
Ġm ax
Ġh ar
ĠA lex
Ġg rand
Ġan g
se nd
ann el
Ġset s
Ġext rem
Ġdescrib es
Ġappear ances
Ġcontro vers
ĠAnd erson
Ġgen us
Ġhig her
ĠDep artment
Ġtouch down
he w
ĠA re
ir on
ĠP ost
ĠO ff
ap ed
end s
Ġcan c
Ġ199 2
Ġland s
Ġconst it
Ġcour se
Ġmid dle
Ġmag n
Ġobs erved
ĠBra at
ĠCorp s
Ġheav ily
M S
m e
v in
Ġ ess
ĠT ime
ĠB re
ĠN es
ill ed
Ġse em
ell ig
Ġcomp os
ran e
Ġad ult
Ġdis play
Ġ199 4
Ġrel ief
ĠRe v
Ġbel ow
Ġsix th
sh ire
Ġadm inist
Ġredu ced
Ġmeet ing
Ġx enon
Ġenj oy
l ight
es ota
ĠM idd
ul ations
ĠL ike
um ber
Ġ3 7
Ġ4 8
Ġj ump
Ġ7 6
Ġact ive
Ġbl ue
Ġsing er
Ġmat ches
Ġresult ed
Ġopp ortun
Ġaud ience
for ce
Ġconclud ed
ĠMinn esota
u ated
Ġw ing
Ġc orn
is k
Ġp aper
Ġh ol
Ġh our
ĠC or
ĠC apt
ĠP it
ĠE mp
ak apo
ran ce
Ġshe ll
Ġinst it
ink el
Ġactiv ity
Ġactiv ities
ĠSm ith
Ġtru e
Ġcomplet ely
r is
Ġc er
is l
Ġb ene
Ġp u
ro om
ĠS outhern
ĠB ol
Ġst ating
ut ch
ĠG reen
ĠJ ul
Ġdis app
Ġman aged
ath us
ĠSe a
ĠCent er
ĠTown send
Ġreve aled
ĠRose bery
Ġquest ion
Ġcontem porary
ĠHaw ai
ĠItal ian
ĠMeyer be
i pped
ã ģ
Ġw ound
ĠD ist
ĠF ur
ĠJ im
if t
ĠK a
Ġqu ality
erv ation
Ġref used
Ġdr um
Ġlevel s
Äģ d
Ġdecl ared
Ġtre es
Ġsepar ate
ĠNic ole
ĠMeyerbe er
b ed
b ird
Ġp un
ac her
ĠF inkel
ect ing
ĠTh under
row d
ĠCon f
Ġbro wn
ĠFor ce
Ġappro ach
ĠWal pole
Ġcontr ast
ĠBec ause
ĠFinkel stein
ing u
Ġto day
Ġd u
ĠT essa
st one
ĠC at
Ġl ot
ĠD o
est ic
Ġun iversity
per or
Ġrec ent
ĠY ue
Ġwe bs
ĠSh iva
Ġback ground
Ġrece ption
Ġ15 0
Ġfeat uring
Ġresp ond
Ġcar ry
Ġmod el
Ġtyp ically
Ġhistor ical
Ġvoc al
Ġparen ts
g al
h old
Ġw alk
it ual
Ġc hem
Ġp ow
ro ad
Ġh air
ĠS ar
Ġn ation
ĠP re
Ġbe at
ĠW ild
Ġ5 2
Ġdis pl
Ġplay s
ang er
ors hip
Ġact ions
Ġpe ace
Ġexp ected
Ġem ot
ah a
ĠBl ue
Ġiss ues
ĠChar l
Ġcond itions
Ġve hic
ĠSoc iety
ĠOtt oman
ĠIll ino
F A
k a
Ġin h
Ġre ar
il ed
ĠB alt
ĠH al
ĠR o
og ue
Ġro y
Ġbec omes
Ġatt ention
Ġwe aken
Ġass ault
Ġmain ly
Ġfam il
Ġeff orts
ĠSp ec
aren t
Ġhous es
e ption
Ġw ear
Ġm el
Ġd raft
ĠT urn
ĠA v
us ion
ĠD es
ĠO m
ess ions
Ġ3 4
Ġres idents
Ġoff er
ock s
Ġspec im
yp e
Ġinst r
ĠAd am
ĠFran c
ĠHigh way
Ġstru gg
ĠCour t
ĠBraat hens
B A
b on
Ġa thlet
Ġs ense
ĠT od
ĠB urn
em ic
os es
oc r
Ġrec omm
ĠAr g
Ġact ually
Ġcall ing
Ġele v
Ġtit les
Ġdem onst
ĠHa it
Ġsound track
Ġprote in
uf act
on ents
Ġs n
ed o
Ġc rowd
en ge
Ġb oard
Ġth ous
Ġal tern
ĠL ittle
Ġro les
Ġpo ly
Ġseason s
Ġwrit e
Ġdef end
led ge
ĠJohn son
ĠCol umb
ĠDe f
Ġarch itect
Ġaccept ed
Ġstru ck
Ġachie ved
ĠGovern ment
ĠPortug ues
Ġcann ot
c ript
i ro
p ly
Ġf ruit
an es
ic ations
Ġth r
Ġn in
ĠM og
ut ions
ĠF am
ĠF ey
ĠO f
pp ing
ber g
ip l
Ġres c
Ġsc ient
ens ion
Ġtyp es
Ġpract ice
ĠVietn am
alys is
ĠPortugues e
w en
Ġ rough
Ġc am
Ġf iction
ro ll
Ġd yn
Ġl b
ĠM at
and ed
ell er
ire ction
Ġ18 1
Ġsc ul
ann ing
Ġdist inct
Ġinf antry
ĠSp ain
ĠAd d
ech an
Ġav oid
Ġprim arily
ĠSec ret
Ġsequ ence
ĠAcad emy
Ġs ales
ĠT int
il es
ĠC ivil
ĠB ook
ĠF er
ĠG roup
Ġpl ant
Ġsp read
ĠY oung
ĠEng ine
Ġ198 6
Ġown ed
Ġtw enty
Ġelect ed
Ġcomb at
Ġslight ly
m et
Ġs ister
ĠS arn
ĠH orse
us e
ĠW els
Ġhe art
ĠE s
Ġsu c
Ġsu st
Ġsp ort
og rap
Ġinc hes
Ġsc ale
Ġoff ensive
ĠAn n
Ġexp ressed
Ġconc ent
Ġext ra
Ġcount y
ĠPr ince
Ġright s
Ġnort heast
Ġaff ected
ceed ed
onym ous
ĠLou is
ĠCapt ain
A A
r ight
Ġs out
Ġw ords
or a
Ġf arm
Ġp le
Ġm is
ĠT ri
ĠC he
ol s
us hed
ĠD ou
Ġ18 0
Ġne igh
ĠAt t
ĠRe view
Ġshow ed
Ġoffic er
Ġprog ress
ĠNes b
ĠTint in
ĠWels h
m ond
m itted
or us
Ġh y
ĠS il
ĠM anc
ig g
ig an
ast ic
Ġab ility
ĠTh ough
Ġthem es
ĠZ hou
ĠAd m
Ġbatt alion
ĠAnd rew
Ġexc av
Ġcomb ined
ĠVar anas
Ġnewsp aper
ĠCer es
iron ment
ĠEmp ire
ĠVaranas i
ã Ĥ
re ct
Ġm ess
Ġh orse
ĠF red
ov ic
Ġqu al
ĠComm un
Ġtit led
Ġport ray
Ġcult ural
Ġsqu are
ĠOd aen
ĠApp le
Ġcasual ties
ĠNesb itt
Ġs ays
Ġo x
ĠT ru
Ġre ign
ĠW ay
ain e
Ġ4 9
Ġrem ark
Ġprodu ce
Ġcontin ues
Ġgr ass
ĠEv a
Ġearl iest
Ġmount ain
wh ile
ĠAngel es
Ġmention ed
Ġanc ient
Ġmur der
Ġcer em
ĠIllino is
ĠOdaen athus
M ont
l aim
n own
in us
en ant
Ġf ully
Ġm ission
ent ed
ĠC ra
ĠB oy
et ts
ĠD irect
ĠW ash
os en
ĠJ os
op er
Ġch ampionship
Ġman ufact
Ġact or
Ġpr int
Ġart ists
Ġresult ing
orp edo
Ġ192 0
ĠRec ords
Ġauthor ities
Ġinflu enced
ĠDu Mont
Ġflood ing
Ġnar row
ĠOlymp ic
Ġadop ted
Ġdise ase
Ġadvant age
ĠMog ad
ĠSarn ia
Ġw ild
ĠC ap
Ġn est
ur a
Ġsp l
Ġ6 5
ĠCol on
ĠPro t
Ġreport s
Ġleg al
Ġbas is
ĠPer Ã³n
Ġrepresent ed
l ies
l ings
m ark
Ã ¨
Ġs ides
Ġc andid
Ġb ott
as c
Ġto ward
Ġm ile
ĠP op
Ġal one
ĠN C
Ġcom ing
Ġex hib
ell a
Ġapp arent
Ġag g
ĠNew s
Ġdef ense
Ġbr idge
hel m
Ġbeg in
Ġview ers
ĠWe ek
Ġlet ters
Ġwithd raw
Ġtow er
Ġtourn ament
ĠMidd le
ĠThunder bird
ĠManc hester
b it
w rit
Ġt orpedo
Ġd irection
Ġh un
ĠS R
ĠH ome
ĠH orn
ĠF our
ĠL ar
ĠO cean
Ġr at
Ġk akapo
Ġy ellow
Ġar med
Ġwork ers
Ġrel atively
Ġfound ed
Ġalong side
Ġocc asion
Ġeff ort
ĠCl ark
Ġnorth west
anc y
Ġill ust
ĠWash ington
a ith
b our
l am
l ers
Ġs ac
Ġc admium
al a
Ġm echan
Ġh ors
Ġl osing
ĠM ax
ul ate
Ġr ang
ian a
Ġun ivers
ĠV an
Ġcont ain
Ġcont act
Ġad j
ric ult
Ġatt ended
Ġem ph
Ġ198 8
Ġoffic ially
Ġed ition
Ġtri ed
Ġorgan ized
Ġcapt ure
Ġindivid uals
Ġtransfer red
Ġphys ical
l im
Ġ áĥ
Ġa st
ĠS um
ent al
ad el
ĠM ass
ĠH u
Ġpro ved
ab ama
ge nd
Ġper man
ĠAl abama
Ġne ut
Ġact ing
pr ise
ĠMe an
Ġrequ ire
Ġwin ter
Ġbeh av
Ġpat tern
Ġofficial s
Ġmeas ure
Ġsurround ing
Ġrain fall
Ġded icated
ĠJose ph
ĠOm aha
ĠMogad ish
c he
c an
r ong
u ous
in em
Ġf eder
ĠS en
Ġl ives
ĠM D
ĠB u
im ore
ĠD est
ĠK ent
Ġen ergy
Ġ6 4
ĠAr m
Ġdo ing
Ġed ge
ĠEd ward
Ġcou ple
i j
i ate
on n
Ġw a
it ness
Ġf olk
Ġm ind
ĠF ant
ĠG all
ĠL ord
Ġch ief
Ġsh ape
Ġ4 6
iz es
ib r
Ġpre par
Ġfollow s
az z
ĠInd epend
Ġdesign ated
Ġshort ly
Ġposs ibly
ĠRec eption
Ġsoc iety
Ġdiv ided
Ġfun ction
Ġdiss ip
ĠHel ms
Ġintens ity
ĠInn is
Ġfinanc ial
ĠMogadish u
R A
k are
Ġf aced
Ġb order
Ġp aid
ĠB h
ĠB owl
ĠP rem
ĠL is
ĠJ ourn
Ġy our
Ġy oun
Ġinc orpor
Ġim ages
Ġalbum s
Ġrep e
Ġ196 4
Ġsim ply
Ġold er
Ġleg isl
ĠHist or
Ġlet ter
Ġsour ces
ĠWil helm
ĠMcC all
Ġey e
Ġdeterm ined
Ġjourn al
Ġmax imum
ĠArg ent
V D
e er
u x
w ide
Ġa id
in ated
al ing
Ġm aster
ent ure
Ġth ir
Ġon to
ĠE nd
Ġcom edy
ĠK ore
Ġpl aces
ip ment
Ġad vert
ug by
Ġmov ie
Ġbro ken
Ġport ion
ĠAss embly
Ġke pt
Ġdou b
Ġpiec e
Ġpot ential
Ġscul pt
Ġemph as
S tation
Å į
Ġ rom
ed ar
Ġc ities
Ġf rag
Ġd ut
Ġh om
ĠF leet
ĠJ up
ud d
du ction
Ġchar ge
ĠComm ission
Ġarg ued
Ġir on
ĠPlay Station
Ġdom estic
Ġroy al
is ters
le ction
ĠB ir
Ġg e
Ġg rew
et y
Ġst ep
ĠR ih
ĠF A
ĠG ood
ĠN ight
ag an
ist ry
ĠK n
ast y
Ġsp ot
Ġun k
ĠV en
Ġcont ent
Ġro ll
Ġ5 3
Ġ5 5
Ġcol or
Ġdep th
ĠComm on
Ġsuggest s
Ġauthor ity
Ġproject s
Ġmanag ement
Ġsit es
ĠHam els
ĠVal ley
ĠBalt imore
ĠRih anna
Ġs ay
Ġs ens
Ġw or
Ġw ave
Ġf ung
Ġp aint
Ġh omes
Ġh ospital
ĠS ky
ac ement
ly s
Ġg ained
ĠW rit
ĠG reek
um es
Ġsh are
Ġsc ience
Ġatt end
Ġwe ak
Ġpr ison
Ġmus eum
Ġent rance
ert ain
Ġdep art
Ġart ic
ĠCon stant
Ġbel ong
Ġph il
Ġcaus ing
Ġtw ice
Ġcritic ized
Ġstruct ures
ĠPal est
ĠDj ed
Ġult imately
Ġtar get
Ġsched ul
Ġwebs ite
r ative
Ġf res
Ġm outh
Ġh yd
ĠB ig
ĠP en
ĠD VD
ĠL ew
Ġv ess
Ġde ploy
ĠU l
Ġcont aining
Ġint ellig
ĠAn th
Ġform ation
Ġinter p
Ġdef ence
Ġresult s
Ġdeb uted
ĠFore st
Ġdism iss
ĠJup iter
ĠDjed kare
g n
y a
y r
Ġt ail
re l
at i
at ur
or ter
Ġc ore
Ġc ricket
Ġf ast
ĠM ore
ĠB ur
ĠH ib
Ġch osen
Ġk g
ĠU s
Ġ5 6
Ġrem ix
Ġdef ensive
Ġop in
Ġmin er
Ġ194 7
Ġbatt les
Ġfore ign
Ġplan et
Ġcoll abor
ĠTor res
Ġlab el
m ore
Ġf ix
Ġin ch
Ġp an
ĠL ock
ĠJ on
ĠE astern
ĠO x
ĠCh ap
ĠCh ild
Ġ4 3
Ġsec urity
Ġcons ecutive
ĠSh ort
Ġent er
Ġ12 0
Ġbr igade
Ġprom inent
Ġorgan ization
Ġstand ing
Ġrefer ence
Ġgrow ing
Ġanim al
Ġbur ied
Ġindepend ent
Ġgrant ed
Ġreject ed
Ġaband oned
M L
b l
t hen
Ã ¼
Ġs and
Ġd iam
ĠF ield
ĠG re
Ġv en
Ġse ek
oc ated
ĠOn ce
Ġwe ight
Ġcol ony
Ġdo ct
Ġthere fore
Ġstud ent
Ġ194 1
Ġvis ited
Ġclaim s
Ġtem ple
Ġord ers
ĠAir port
Ġcond ition
Ġcell s
wh ite
ĠScott ish
ograp her
ĠApple white
e es
m on
m osp
Ġm ic
Ġd ress
ĠS o
ĠS AF
ĠC re
ĠB on
ĠB BC
ir ing
ĠR A
ĠN orm
Ġr isk
Ġsp ect
ph ia
Ġnew ly
Ġreg ions
Ġsecond s
Ġsing les
Ġ198 7
air s
Ġbro ke
Ġmom ent
Ġwound ed
adel phia
ĠSAF E
a o
Ġt ur
Ġa head
Ġc ases
Ġf ear
as ters
ou red
Ġre aching
Ġhe ight
res p
ĠIn stitute
Ġse ems
Ġen emy
ĠInd ust
Ġsol o
ush ing
Ġequ ipment
ffic ient
Ġknow ledge
Ġident ified
Ġnomin ated
ĠEgypt ian
Ġtemper ature
ĠBack ground
Ġvers ions
n ers
t av
Ġt un
Ġa ired
Ġc ust
Ġc ouncil
Ġb ud
Ġm ales
ad ing
ĠB an
ĠD ue
ĠJ ur
Ġun ique
Ġ4 1
Ġ198 4
Ġ198 9
Ġ197 2
Ġreturn ing
Ġsupport ing
Ġele ment
ĠBe fore
Ġcamp us
Ġopp osed
urb an
Ġproble m
ĠCroat ia
Ġenv ironment
ĠFur ther
L e
c y
m un
Ġt im
er o
Ġf ired
Ġf ox
is hes
ĠS ub
ad s
ĠM ike
et te
ot ed
Ġat mosp
Ġan alysis
ĠE ach
ĠK ir
Ġun p
Ġ5 4
Ġper fect
Ġte acher
Ġ198 5
Ġoper ated
ĠCar l
ĠOr igin
Ġlook ing
Ġincreasing ly
Ġliter ature
ĠOper ation
Ġschol ars
ĠEnter tain
Ġstra ight
Ġunk nown
u ct
Ġthe ory
Ġb oy
al le
st ream
am ing
Ġe c
ĠM ort
ĠI d
id er
ĠH MS
ĠR y
ĠR et
Ġal ter
Ġhe re
igh th
ĠK ar
Ġcomp r
Ġwe ather
Ġwrit es
Ġdef in
Ġac ad
Ġbelie ve
Ġbre eding
Ġexpl ained
Ġcommon ly
ĠBar row
Ġhistor ian
Ġide as
Ġsett lement
ĠSw ed
Ġburn s
ĠCard iff
Ġconfir med
Ġmole c
e g
u ge
y ch
Ġo d
Ġo il
at o
ĠM ic
Ġst ations
ĠP ublic
ĠN ever
av ed
ĠE ven
Ġv o
ĠK ey
ĠSt an
ĠV ill
Ġar rest
Ġher self
ĠOn ly
Ġcons isted
Ġsing ing
Ġ194 4
Ġland fall
ĠCl ass
Ġadv anced
ĠDe velop
Ġsystem s
Ġpar liament
Ġcritic ism
Ġfem ales
ĠMich igan
ĠKe ats
Ġstri ke
ĠPhil adelphia
Ġproper ty
ĠCong ress
Ġeconom ic
Ġcontroll ed
h u
k et
al ions
Ġp ict
as ure
ĠH art
ĠR og
ĠG i
ĠG ord
ĠL l
ill o
Ġde ities
Ġim ag
we et
aw a
Ġexp ed
Ġcre ation
Ġlead er
Ġ13 0
ĠWilliam s
ĠMount ed
Ġgrow th
Ġmaint ained
Ġpiec es
Ġfail ure
Ġdro pped
Ġsem i
ĠAdd ition
ĠMean while
Ġa wards
in ity
in ary
en a
Ġf ict
Ġm ob
ĠA p
ĠM att
ĠB as
Ġg ar
ĠR os
ĠD en
ĠD utch
un ic
ra k
ĠG ard
ĠL u
ĠL uc
Ġcomp ar
Ġar rang
Ġres emb
Ġ5 7
ĠAl bum
hip s
Ġfilm ed
ĠLe g
ful ly
Ġgu est
Ġkill ing
Ġfre eway
Ġpit ched
Ġhon or
Ġfly ing
Ġinj ury
Ġfeder al
i as
Ã ¶
Ġt act
Ġt ask
on om
Ġs en
Ġb it
Ġm ist
ĠB ost
ĠD er
ĠD is
ĠD un
ĠG h
ĠN athan
ant ly
ie val
ĠIt aly
Ġser ve
amp ion
Ġ6 00
Ġact ress
Ġret ired
ash ion
Ġmat ter
ĠGu ard
Ġrest aur
ĠAnd y
Ġbelie f
Ġhum ans
ĠAb u
Ġspe ak
ĠSte ve
Ġbo ats
Ġrelig ion
Ġpromot ed
Ġval ue
Ġmount ed
ĠMin ister
lus ion
ĠJe ff
Ġrapid ly
Ġbatter y
Ġweap ons
Ġhors es
c ription
j o
k in
Ġ ut
Ġs elling
Ġb id
Ġb ank
ro ph
ic ed
Ġh am
ĠA st
ĠC old
ĠM od
ul i
ĠL es
ers ey
ag er
all s
ie ut
Ġag ricult
Ġfl ank
Ġcol umn
ĠAmeric ans
Ġdesc ription
Ġinv asion
ĠCon ference
Ġpass es
Ġpass ing
Ġpublic ation
Ġprot est
Ġcou gar
Ġsignificant ly
Ġpromot ion
Ġconn ected
Ġrecogn ized
Ġcreat ing
Ġmult iple
Ġcle an
Ġprem i
Ġaccomp an
Ġprep ared
c op
f ort
h an
h aps
Ä ĩ
re te
re nder
Ġs ought
it able
Ġb ats
Ġm o
Ġd ata
ĠM ur
ĠM em
ĠF inal
ĠW at
ĠW ork
ĠIn st
Ġch ose
ĠV ideo
ick s
ames e
Ġstart s
Ġfam ous
Ġdel iver
Ġpopular ity
Ġproduc ers
cher s
Ġvol ume
Ġwall s
ĠSl am
Ġregard ed
Ġstreng then
Ġreact ion
Ġsil ver
Ġasp ects
Ġnucle us
Ġsev enth
Ġnecess ary
Ġschedul ed
c a
h i
l oad
y th
Ġd rop
Ġre form
ĠA ri
ĠC ole
Ġl aid
ly ing
ol ved
ot e
Ġbe aut
ĠG ulf
ĠL ine
ĠL iber
Ġv irt
Ġr ise
Ġr ival
Ġse nd
og en
Ġnew s
Ġ9 6
Ġ198 1
Ġland ing
hel ess
Ġstri k
ĠVietn amese
Ġsust ained
Ġphil os
h m
o ch
u an
Ġo uter
Ġf at
Ġf ought
Ġd ated
ĠS und
st anding
ĠM u
ĠH aven
ĠN az
ĠO bs
if ying
Ġsp ring
ip s
ock ed
ven ue
ĠAd v
ĠUS A
Ġref lect
ĠPh o
Ġdr ive
ĠAm ong
Ġcast le
Ġcurrent ly
Ġemploy ed
ĠCamb od
Äģd a
Ġfamil ies
ĠThunderbird s
Ġbud get
r um
y t
à ¸
Ġt ree
he astern
in i
on ent
Ġs ave
Ġp ul
Ġm ort
ĠA thlet
ad d
iv ity
im ents
ĠD omin
ĠG irl
Ġr ating
Ġex ec
Ġcont ained
Ġar ms
Ġro w
Ġ7 00
Ġunder ground
orn ey
Ġend s
olog ists
hes s
ins ula
Ġ17 9
Ġph ase
Ġ193 9
Ġtri al
Ġfac ilities
Ġfrequ ently
ĠOx ford
ĠEntertain ment
T C
i i
l ines
r ig
s w
Ġw ed
ro g
Ġd ial
ĠC a
Ġl a
ĠH an
Ġbe y
th ur
ĠD ar
un ction
ĠF re
ĠF riend
ĠF estival
ĠG reg
ĠN H
ĠE ll
Ġex ecutive
se a
ian ce
ap h
Ġun us
Ġcomp uter
Ġcont ributed
Ġar c
Ġpre fer
Ġcol lected
Ġact ors
Ġexp ress
Ġ194 2
Ġsim ple
Ġallow s
Ġneg ative
bor ough
ĠStud ios
Ġdeg ree
ĠRev olution
Ġbott om
ĠGord on
i able
k ins
r idge
Ġc ited
Ġc raft
ar ian
Ġh or
ĠS us
ĠC hel
ay er
ĠR ail
un te
ĠN BA
Ġsh aped
se y
ĠSt ep
Ġsp orts
Ġover l
ang ers
Ġ6 1
Ġ7 3
Ġ9 5
Ġoper a
Ġ191 8
Ġeffect ive
Ġentire ly
Ġanim als
ĠCo ast
Ġimpro ved
Ġsubsequ ent
ĠBet ween
ĠTurn er
ĠCra zy
ĠPrem ier
Ġfict ional
ieut enant
Ġbey ond
e z
i ot
m ission
Ã ¤
ar p
Ġm ig
ĠB ru
Ġg ain
Ġg ives
ĠR el
ag ement
Ġnot able
per ial
Ġrec ently
ĠAl f
Ġ6 2
Ġ9 7
Ġ8 00
ĠMar io
Ġtra in
Ġ196 8
Ġ196 9
Ġext ensive
anc ing
ĠPro v
Ġvis ual
Ġmed ical
Ġfind ing
Ġmy th
Ġbo at
Ġenc oura
ĠBo ise
Ġgrad ually
ĠTur k
ĠMart in
Ġkilomet res
ĠTod ay
ĠLew is
ĠBost on
c hen
i ences
r ine
Ġs ail
at us
is y
Ġb ass
ro t
Ġd ates
ĠC le
ĠC ub
Ġe gg
ec k
ly wood
ĠB art
Ġst ages
ĠR od
ĠF ox
ul es
ĠJ ain
Ġch air
ĠK ang
ĠU N
ĠSt one
ĠHe ad
are t
Ġfin als
ren ce
Ġfl oor
Ġmus h
Ġsecond ary
Ġsever e
Ġexp anded
Ġ197 5
ĠBr idge
Ġocc as
ĠJu an
yc le
Ġserv ing
Ġant imony
ĠBar b
Ġsurv ey
Ġprogram s
Ġgl ob
ĠCro wn
ĠPe ople
ĠSy stem
ĠRuss ian
Ã¡n h
ĠDan iel
e ed
i ations
y son
ed a
it an
Ġb ow
Ġb ul
le e
ĠA er
ĠI gu
Ġg reen
Ġit ems
Ġcom es
op p
ill ing
Ġch ur
ust ed
Ġun f
Ġcomp osition
Ġar ran
out s
Ġcent uries
Ġ7 2
Ġ8 5
ans as
Ġ196 5
Ġ197 4
ograph ic
Ġexc lus
Ġfind s
ĠEv ita
Ġjo in
ĠMag azine
Ġoccup ied
ĠBel g
ĠUp on
s et
t hes
u ate
er ts
Ġf aith
Ġd aily
om pl
Ġn aval
ĠM en
ec ess
ĠB and
ĠG ab
ĠJ ac
ĠJ ud
iz ations
ubl in
Ġdec ades
Ġ8 1
Ġso le
ĠIs ab
ĠComm ander
Ġdeath s
Ġsuccessful ly
Ġloss es
ĠKh Ã¡nh
ĠMac Le
Ġneg ot
Ġtreat ment
Ġslow ly
Ġindepend ence
Ġcal c
Ġcommission ed
Ġexperi enced
w in
Ġa er
ĠA venue
ĠC D
am y
Ġe th
ĠR ome
ĠF ar
ist an
Ġ7 1
Ġ9 4
Ġfl ag
Ġco ol
Ġ16 4
Ġdid n
ĠPro ject
Ġtri p
Ġperson nel
Ġsent ence
Ġeng aged
Ġcapt ain
ĠSong s
ĠJam al
Ġpurch ased
Ġpolic y
ĠLi u
Ġbene f
a ire
Å ¡
Ġl abor
Ġe as
ĠM ot
ĠB rian
Ġst reet
ĠP ers
Ġbe ach
ĠR ol
ĠD ublin
ĠG A
and a
av a
Ġch orus
Ġnot hing
ĠCh art
Ġacc ompl
Ġco al
ann y
ĠSh a
Ġsupp ly
ĠSc ience
Ġ16 0
Ġconc rete
Ġ194 6
Ġsouth west
Ġprot agon
Ġworld wide
Ġbeg un
Ġel imin
Ġprop os
Ġdecl ined
Ġreason s
ateg ory
Ġbrief ly
ĠTenn yson
ĠTem ple
ĠThrough out
ĠDist rict
Ġfres h
ĠIgu an
t own
Ġthe at
at on
ing ly
el a
Ġn or
ĠM ov
ĠB ull
Ġg as
ir ation
ut ing
ut ation
ĠD own
ĠIn g
Ġinc ident
ĠAl so
Ġmov es
ĠLe on
pr ing
Ġlead ers
Ġdra wn
ĠTr ack
Ġimport ance
Ġroad s
ĠSim one
Ġsum m
Ġesc ape
ĠGovern or
Ġnorm al
Ġplat form
b o
b orn
Ġ #
Ġt all
Ġt end
er c
on ic
Ġw itness
Ġp et
Ġd ance
Ġh ired
am in
ĠB ern
ĠB aby
ĠR ay
Ġis ol
ĠJ es
Ġr ac
Ġpl um
qu ake
Ġsp ons
ell i
ru g
ru pt
Ġdec ade
ook ing
ĠMar ia
Ġfl u
Ġfound ation
Ġlong est
Ġ196 6
Ġ195 2
Ġgu ard
Ġ193 6
ĠPro duction
Ġ191 9
Ġposs ibility
ĠBro ok
ĠTe am
Ġdel ay
Ġarr ival
Ġchap ter
Ġbill ion
Ġparticip ated
Ġfir m
Ġuns u
ĠAre a
Ġenjoy ed
Ġrespond ed
ĠFam ily
Ġpaint ings
resp ond
ĠDevelop ment
Ġsen ior
Ġaccompan ied
ĠMacLe od
3 0
B S
l s
r ons
is ers
ĠB oard
Ġst ret
ĠR ow
ĠR ox
ĠD ream
ĠF ive
os a
Ġhe ard
Ġr ing
ich ol
ĠU lys
ĠCh ains
ĠAl i
ĠAl bert
Ġj ack
ĠMar l
Ġver t
Ġsub s
ific ations
Ġset ting
Ġ11 0
Ġ17 7
Ġdevelop ing
ĠDe v
Ġold est
Ġpar alle
Äģ n
ÃŃ a
Ġsqu ad
Ġagre ement
Ġdoll ar
het ic
Ġrough ly
ĠAdm ir
ĠSum mer
ĠUlys ses
O C
c hest
o e
Ġ i
an o
Ġp al
Ġd og
ĠT im
ĠB or
ĠB ond
im et
ĠW all
ĠIn t
Ġch oice
pt y
ess ed
Ġ7 7
Ġrem n
Ġcons ists
Ġdec re
Ġacc ident
Ġcall s
Ġtrans it
Ġadd ing
Ġpop ulations
Ġem p
Ġ197 3
ĠCon st
Ġlast ed
esp read
ĠPh ill
Ġtown s
Ġcomb ination
Ġtechn ology
Ġexist ence
Ġregard ing
Ġviol ence
Ġdomin ated
Ġpoet ry
Ġsymb ol
ĠFranc isc
Ġathlet es
ĠDou gl
ĠAnth ony
ĠInst ead
ĠTurk ish
a ver
c ome
r ant
w ar
Ġ ign
it ors
Ġf ellow
ĠS k
ĠThe atre
ĠB ishop
us al
Ġal tar
Ġcom ic
Ġse at
Ġnot e
Ġcont rib
Ġres erv
Ġ5 9
ress ive
Ġcomm ittee
ĠAn onymous
Ġunder t
Ġfilm ing
Ġass ass
Ġsub mar
Ġac res
Ġdo or
Ġtra v
Ġperform ing
Ġ196 7
ĠCon n
ruct ure
ĠCar ib
Ġclub s
Ġcompet itions
ĠBra z
Ġcolle ge
Ġassoci ation
Ġclos ely
ĠOd e
Ġexist ing
Ġappl ied
Ġhabit at
ĠRad io
Ġweaken ed
ĠHorn ung
Ġunsu ccess
v ens
Ġt rou
Ġt ells
Ġf ashion
is f
Ġp s
ĠA ston
ĠA ML
il ing
ĠB i
ĠL ife
ag re
ag le
ist on
ĠK enn
Ġrec onst
Ġro of
Ġper haps
Ġdes cend
Ġ6 6
Ġ9 8
Ġtr uth
ĠMar c
Ġne ither
Ġsub stant
Ġ17 5
Ġdist ingu
Ġprov ides
Ġ191 4
Ġbatt alions
Ġserv es
Ġcap able
Ġgreat ly
Ġappe al
ĠMount ain
Ġcor rect
Ġcor respond
Ġlearn ed
Ġpain ting
Ġarchae ological
Ġder ived
Ġrein force
Ġpil ot
Ġdetail s
Ġpurp ose
Ġadminist ration
Ġopportun ity
Ġcerem ony
Ġoccasion ally
ĠCarib be
O T
b urg
v ar
on a
Ġs om
Ġs ort
Ġf illed
Ġb ought
Ġh yp
ent ially
Ġth ing
Ġon es
ĠH on
ĠD ota
ra it
ĠO h
Ġsu fficient
ĠIn c
ĠSt ew
ount ain
Ġsupp osed
Ġexp ans
Ġrece iving
Ġinv ited
Ġhead ed
Ġed itor
Ġprot ection
Ġstory line
ĠBro ad
Ġbas ket
Ġspe aking
Ġsk in
Ġenc ounter
Ġhouse hold
Ġtechn ique
Ġnec k
Ġinn ings
ĠArch ae
Ġvehic les
Ġdissip ated
ĠChel sea
Ġchur ches
ĠDougl as
ĠCaribbe an
G N
R E
V N
l a
Ġa im
in j
or al
Ġc it
Ġc ra
Ġc rop
Ġd rew
Ġh at
Ġe u
ĠM el
ur i
ĠD et
ĠL ow
ĠL ieutenant
ĠJ ay
ag n
ĠE RA
Ġse g
ab il
pt on
ĠV ol
Ġev ac
rop ri
ĠAs ia
Ġac id
Ġgo es
Ġrece ive
Ġ194 5
Ġ197 1
ĠWh at
Ġany thing
Ġclass ified
Ġtyp ical
Ġview ed
ĠAb out
ĠPer ry
Ġsurv ived
Ġisland s
iec e
Ġwid espread
idd en
Ġmass ive
Ġmot ion
ĠCard inal
Ġstop ped
ĠMa eda
Ġdram a
ĠGeorg ian
Ġsout heast
ĠFred er
Ġast ron
ĠConstant ine
ĠHib ari
l ik
r ist
r uli
t ty
Å Ĥ
Ġo pt
Ġf uel
ĠA ge
il ton
Ġl oad
ac ity
ĠM TV
ol a
ĠH in
ĠH ard
ĠR un
ĠR io
ĠR Ã©
Ġwh y
ĠW ind
op es
igh ter
Ġch o
ĠK il
Ġsh ared
ap es
ie ge
Ġro b
ĠY e
ious ly
Ġfl ights
Ġsub t
Ġso ft
ann ed
Ġ198 2
Ġ17 6
Ġdist rict
ĠQ edar
Ġ25 0
ĠPr inc
Ġauth ors
Ġinit i
ĠRoman i
ĠSim on
Ġsett lers
Ġmiss ing
gl ades
ĠGold en
Ġtry ing
Ġacqu ired
Ġdig ital
Ġconver ted
Ġsaf ety
ĠFant asy
ibr ary
Ġrepe ated
c er
v is
Ġ ice
in osaur
Ġc ab
Ġd ub
st ances
Ġl in
id ges
iv ered
ĠP att
ĠG il
ĠG ang
ĠG ram
ĠJ ones
ri er
if ul
Ġr ich
Ġch annel
Ġex act
ĠSt adium
Ġsp acing
Ġle gend
Ġro utes
man n
Ġfin ish
ild ing
iss ance
Ġloc ations
Ġ197 6
Ġ195 6
Ġ191 3
Ġ191 6
Ġexper iment
rem e
Ġgl ass
Ġwat ched
Ġhold ing
Ġbase ball
Ġreb u
Ġfund ing
ĠMo z
Ġfoc used
Ġplann ing
ĠOs lo
Ġdepict ed
ĠSur v
ĠHo ly
Ġinstr ument
ĠHait i
Ġsuc ceeded
Ġperman ent
ĠVen us
Ġopin ion
ĠShort ly
Ġatmosp here
ĠPho en
Ġwed ding
Ġarran ged
ĠIguan odon
ĠBraz il
Ġ urban
Ġt able
Ġw ick
Ġb owl
an th
Ġp ack
Ġm ut
ĠM ah
ĠF el
ĠF ire
ĠG ra
ĠL enn
Ġch ance
ĠK at
ap ers
Ġres ident
Ġro se
Ġover se
Ġkn ew
Ġdec line
ĠAr ts
ob a
Ġchar ter
Ġass emb
Ġdef ined
Ġ11 2
Ġ194 3
Ġrev olution
Ġprov iding
ĠAll ied
Ġprot ect
Ġreal ity
ĠSim ilar
Ġcreat or
Ġpen alty
Ġearth quake
Ġri f
Ġcred ited
ĠSecret ary
L I
p ass
Ġt ied
Ġs un
Ġw ins
Ġd ating
ĠS now
ur ation
ĠB ul
ĠI GN
ĠH ell
ĠH omer
ĠR angers
ĠG ully
Ġr ub
ĠCh ronic
Ġpre gn
form ation
Ġ8 7
Ġsupp lies
Ġ196 3
Ġdown load
Ã© t
Ġair port
Ġmod er
Ġhead s
Ġway s
Ġexpl os
ĠAb b
Ġdel ivered
ĠSte vens
Ġlaw s
Ġtechn ical
ĠMor rison
Ġsepar ated
Ġren amed
ĠEver glades
ev o
Ġthous ands
ĠAddition ally
ĠHin du
S B
c rib
g Ã©
h at
m in
Ġs an
Ġf air
Ġd ry
ĠT op
ĠS ound
ad or
Ġg al
Ġr ural
Ġse lect
ess ing
ear s
ĠU TC
ub e
ok es
Ġen l
Ġte aching
iss ipp
Ġsec ure
att le
ĠAr thur
Ġcol our
