{
  "version": "1.0",
  "truncation": null,
  "padding": null,
  "added_tokens": [
    {
      "id": 0,
      "content": "<unk>",
      "single_word": false,
      "lstrip": false,
      "rstrip": false,
      "normalized": false,
      "special": true
    },
    {
      "id": 1,
      "content": "<s>",
      "single_word": false,
      "lstrip": false,
      "rstrip": false,
      "normalized": false,
      "special": true
    },
    {
      "id": 2,
      "content": "</s>",
      "single_word": false,
      "lstrip": false,
      "rstrip": false,
      "normalized": false,
      "special": true
    }
  ],
  "normalizer": null,
  "pre_tokenizer": {
    "type": "ByteLevel",
    "add_prefix_space": false,
    "trim_offsets": true,
    "use_regex": true
  },
  "post_processor": null,
  "decoder": {
    "type": "ByteLevel",
    "add_prefix_space": true,
    "trim_offsets": true,
    "use_regex": true
  },
  "model": {
    "type": "BPE",
    "dropout": null,
    "unk_token": null,
    "continuing_subword_prefix": null,
    "end_of_word_suffix": null,
    "fuse_unk": false,
    "byte_fallback": false,
    "vocab": {
      "<unk>": 0,
      "<s>": 1,
      "</s>": 2,
      "!": 3,
      "\"": 4,
      "#": 5,
      "$": 6,
      "%": 7,
      "&": 8,
      "'": 9,
      "(": 10,
      ")": 11,
      "*": 12,
      "+": 13,
      ",": 14,
      "-": 15,
      ".": 16,
      "/": 17,
      "0": 18,
      "1": 19,
      "2": 20,
      "3": 21,
      "4": 22,
      "5": 23,
      "6": 24,
      "7": 25,
      "8": 26,
      "9": 27,
      ":": 28,
      ";": 29,
      "<": 30,
      "=": 31,
      ">": 32,
      "?": 33,
      "@": 34,
      "A": 35,
      "B": 36,
      "C": 37,
      "D": 38,
      "E": 39,
      "F": 40,
      "G": 41,
      "H": 42,
      "I": 43,
      "J": 44,
      "K": 45,
      "L": 46,
      "M": 47,
      "N": 48,
      "O": 49,
      "P": 50,
      "Q": 51,
      "R": 52,
      "S": 53,
      "T": 54,
      "U": 55,
      "V": 56,
      "W": 57,
      "X": 58,
      "Y": 59,
      "Z": 60,
      "[": 61,
      "\\": 62,
      "]": 63,
      "^": 64,
      "_": 65,
      "`": 66,
      "a": 67,
      "b": 68,
      "c": 69,
      "d": 70,
      "e": 71,
      "f": 72,
      "g": 73,
      "h": 74,
      "i": 75,
      "j": 76,
      "k": 77,
      "l": 78,
      "m": 79,
      "n": 80,
      "o": 81,
      "p": 82,
      "q": 83,
      "r": 84,
      "s": 85,
      "t": 86,
      "u": 87,
      "v": 88,
      "w": 89,
      "x": 90,
      "y": 91,
      "z": 92,
      "{": 93,
      "|": 94,
      "}": 95,
      "~": 96,
      "¡": 97,
      "¢": 98,
      "£": 99,
      "¤": 100,
      "¥": 101,
      "¦": 102,
      "§": 103,
      "¨": 104,
      "©": 105,
      "ª": 106,
      "«": 107,
      "¬": 108,
      "®": 109,
      "¯": 110,
      "°": 111,
      "±": 112,
      "²": 113,
      "³": 114,
      "´": 115,
      "µ": 116,
      "¶": 117,
      "·": 118,
      "¸": 119,
      "¹": 120,
      "º": 121,
      "»": 122,
      "¼": 123,
      "½": 124,
      "¾": 125,
      "¿": 126,
      "À": 127,
      "Á": 128,
      "Â": 129,
      "Ã": 130,
      "Ä": 131,
      "Å": 132,
      "Æ": 133,
      "Ç": 134,
      "È": 135,
      "É": 136,
      "Ê": 137,
      "Ë": 138,
      "Ì": 139,
      "Í": 140,
      "Î": 141,
      "Ï": 142,
      "Ð": 143,
      "Ñ": 144,
      "Ò": 145,
      "Ó": 146,
      "Ô": 147,
      "Õ": 148,
      "Ö": 149,
      "×": 150,
      "Ø": 151,
      "Ù": 152,
      "Ú": 153,
      "Û": 154,
      "Ü": 155,
      "Ý": 156,
      "Þ": 157,
      "ß": 158,
      "à": 159,
      "á": 160,
      "â": 161,
      "ã": 162,
      "ä": 163,
      "å": 164,
      "æ": 165,
      "ç": 166,
      "è": 167,
      "é": 168,
      "ê": 169,
      "ë": 170,
      "ì": 171,
      "í": 172,
      "î": 173,
      "ï": 174,
      "ð": 175,
      "ñ": 176,
      "ò": 177,
      "ó": 178,
      "ô": 179,
      "õ": 180,
      "ö": 181,
      "÷": 182,
      "ø": 183,
      "ù": 184,
      "ú": 185,
      "û": 186,
      "ü": 187,
      "ý": 188,
      "þ": 189,
      "ÿ": 190,
      "Ā": 191,
      "ā": 192,
      "Ă": 193,
      "ă": 194,
      "Ą": 195,
      "ą": 196,
      "Ć": 197,
      "ć": 198,
      "Ĉ": 199,
      "ĉ": 200,
      "Ċ": 201,
      "ċ": 202,
      "Č": 203,
      "č": 204,
      "Ď": 205,
      "ď": 206,
      "Đ": 207,
      "đ": 208,
      "Ē": 209,
      "ē": 210,
      "Ĕ": 211,
      "ĕ": 212,
      "Ė": 213,
      "ė": 214,
      "Ę": 215,
      "ę": 216,
      "Ě": 217,
      "ě": 218,
      "Ĝ": 219,
      "ĝ": 220,
      "Ğ": 221,
      "ğ": 222,
      "Ġ": 223,
      "ġ": 224,
      "Ģ": 225,
      "ģ": 226,
      "Ĥ": 227,
      "ĥ": 228,
      "Ħ": 229,
      "ħ": 230,
      "Ĩ": 231,
      "ĩ": 232,
      "Ī": 233,
      "ī": 234,
      "Ĭ": 235,
      "ĭ": 236,
      "Į": 237,
      "į": 238,
      "İ": 239,
      "ı": 240,
      "Ĳ": 241,
      "ĳ": 242,
      "Ĵ": 243,
      "ĵ": 244,
      "Ķ": 245,
      "ķ": 246,
      "ĸ": 247,
      "Ĺ": 248,
      "ĺ": 249,
      "Ļ": 250,
      "ļ": 251,
      "Ľ": 252,
      "ľ": 253,
      "Ŀ": 254,
      "ŀ": 255,
      "Ł": 256,
      "ł": 257,
      "Ń": 258,
      "Ġt": 259,
      "he": 260,
      "Ġa": 261,
      "in": 262,
      "Ġthe": 263,
      "er": 264,
      "on": 265,
      "Ġ,": 266,
      "re": 267,
      "Ġs": 268,
      "ed": 269,
      "Ġo": 270,
      "Ġw": 271,
      "nd": 272,
      "at": 273,
      "Ġ.": 274,
      "or": 275,
      "it": 276,
      "Ġc": 277,
      "en": 278,
      "Ġf": 279,
      "is": 280,
      "es": 281,
      "ar": 282,
      "Ġof": 283,
      "Ġb": 284,
      "an": 285,
      "Ġin": 286,
      "al": 287,
      "ing": 288,
      "Ġp": 289,
      "Ġand": 290,
      "as": 291,
      "Ġto": 292,
      "ro": 293,
      "ic": 294,
      "Ġm": 295,
      "Ġd": 296,
      "Ġh": 297,
      "ion": 298,
      "le": 299,
      "ou": 300,
      "ĠT": 301,
      "Ġre": 302,
      "Ġ=": 303,
      "Ġ\"": 304,
      "ĠA": 305,
      "ĠS": 306,
      "ent": 307,
      "il": 308,
      "Ġth": 309,
      "Ġ1": 310,
      "st": 311,
      "ĠC": 312,
      "el": 313,
      "om": 314,
      "Ġl": 315,
      "am": 316,
      "ĠĊ": 317,
      "Ġe": 318,
      "Ġn": 319,
      "Ġ@": 320,
      "ad": 321,
      "ac": 322,
      "Ġwas": 323,
      "ĠM": 324,
      "ur": 325,
      "ĠThe": 326,
      "ec": 327,
      "Ġon": 328,
      "ly": 329,
      "ĠB": 330,
      "ĠI": 331,
      "Ġg": 332,
      "Ġ'": 333,
      "et": 334,
      "ol": 335,
      "id": 336,
      "iv": 337,
      "im": 338,
      "Ġfor": 339,
      "ir": 340,
      "-@": 341,
      "Ġ@-@": 342,
      "ig": 343,
      "ot": 344,
      "ter": 345,
      "Ġas": 346,
      "ĠH": 347,
      "us": 348,
      "ow": 349,
      "Ġst": 350,
      "ut": 351,
      "ith": 352,
      "ay": 353,
      "Ġ2": 354,
      "ĠP": 355,
      "ation": 356,
      "ver": 357,
      "Ġbe": 358,
      "her": 359,
      "Ġthat": 360,
      "Ġwith": 361,
      "ĠR": 362,
      "ce": 363,
      "th": 364,
      "ĠD": 365,
      "Ġis": 366,
      "un": 367,
      "em": 368,
      "ĠF": 369,
      "Ġwh": 370,
      "ul": 371,
      "Ġby": 372,
      "Ġal": 373,
      "ch": 374,
      "Ġ)": 375,
      "Ġ(": 376,
      "ĠW": 377,
      "Ġcon": 378,
      "ra": 379,
      "ĠG": 380,
      "os": 381,
      "ĠL": 382,
      "ĠN": 383,
      "Ġat": 384,
      "ers": 385,
      "ct": 386,
      "Ġit": 387,
      "Ġ19": 388,
      "rom": 389,
      "and": 390,
      "Ġan": 391,
      "um": 392,
      "est": 393,
      "ĠJ": 394,
      "ag": 395,
      "Ġhe": 396,
      "00": 397,
      "ist": 398,
      "ain": 399,
      "od": 400,
      "av": 401,
      "ri": 402,
      "ĠE": 403,
      "ĠO": 404,
      "Ġfrom": 405,
      "Ġcom": 406,
      "Ġhis": 407,
      "op": 408,
      "Ġpro": 409,
      "res": 410,
      "ies": 411,
      "if": 412,
      "Ġv": 413,
      "ort": 414,
      "ere": 415,
      "ill": 416,
      "ld": 417,
      "Ġde": 418,
      "pp": 419,
      "Ġsu": 420,
      "ore": 421,
      "ĠIn": 422,
      "Ġr": 423,
      "Ġse": 424,
      "Ġwere": 425,
      "ew": 426,
      "ong": 427,
      "igh": 428,
      "ard": 429,
      "ate": 430,
      "all": 431,
      "art": 432,
      "ak": 433,
      "ich": 434,
      "Ġch": 435,
      "Ġor": 436,
      "ab": 437,
      "ant": 438,
      "ud": 439,
      "oc": 440,
      "ber": 441,
      "Ġex": 442,
      "gh": 443,
      "ity": 444,
      "ated": 445,
      "pt": 446,
      "ess": 447,
      "ear": 448,
      "ĠK": 449,
      "Ġpl": 450,
      "ame": 451,
      "qu": 452,
      "ive": 453,
      "rou": 454,
      "Ġare": 455,
      "Ġâ": 456,
      "Ġsh": 457,
      "Ġk": 458,
      "ack": 459,
      "ect": 460,
      "ĠâĢ": 461,
      "ĠU": 462,
      "Ġhad": 463,
      "se": 464,
      "Ġwhich": 465,
      "red": 466,
      "ov": 467,
      "ĠSt": 468,
      "ast": 469,
      "Ġsp": 470,
      "ian": 471,
      "Ġy": 472,
      "ment": 473,
      "Ġle": 474,
      "Ġnot": 475,
      "ge": 476,
      "ord": 477,
      "rit": 478,
      "ip": 479,
      "ine": 480,
      "ell": 481,
      "ally": 482,
      "our": 483,
      "ost": 484,
      "ight": 485,
      "ther": 486,
      "ap": 487,
      "Ġu": 488,
      "ish": 489,
      "ĠCh": 490,
      "oun": 491,
      "ia": 492,
      "Ġ3": 493,
      "ave": 494,
      "ary": 495,
      "ust": 496,
      "og": 497,
      "Ġ200": 498,
      "Ġun": 499,
      "ous": 500,
      "irst": 501,
      "ĠV": 502,
      "cc": 503,
      "Ġinc": 504,
      "Ġ;": 505,
      "Ġcomp": 506,
      "ru": 507,
      "ions": 508,
      "Ġtheir": 509,
      "Ġbut": 510,
      "ide": 511,
      "ure": 512,
      "so": 513,
      "Ġcont": 514,
      "Ġint": 515,
      "fter": 516,
      "ical": 517,
      "ial": 518,
      "Ġar": 519,
      "Ġfirst": 520,
      "ould": 521,
      "Ġits": 522,
      "hed": 523,
      "ĠâĢĵ": 524,
      "Ġwhe": 525,
      "wo": 526,
      "out": 527,
      "ub": 528,
      "Ġ20": 529,
      "ff": 530,
      "Ġ:": 531,
      "ue": 532,
      "Ġher": 533,
      "own": 534,
      "ok": 535,
      "Ġalso": 536,
      "Ġcl": 537,
      "per": 538,
      "ign": 539,
      "ater": 540,
      "ran": 541,
      "orm": 542,
      "ie": 543,
      "ome": 544,
      "ork": 545,
      "ass": 546,
      "ire": 547,
      "end": 548,
      "Ġres": 549,
      "Ġab": 550,
      "Ġad": 551,
      "Ġus": 552,
      "ry": 553,
      "Ġrec": 554,
      "Ġhave": 555,
      "age": 556,
      "ĠHe": 557,
      "Ġ4": 558,
      "Ġro": 559,
      "mer": 560,
      "Ġone": 561,
      "ond": 562,
      "low": 563,
      "Ġhas": 564,
      "ĠTh": 565,
      "du": 566,
      "Ġ5": 567,
      "Ġper": 568,
      "Ġbeen": 569,
      "ime": 570,
      "Ġtwo": 571,
      "ence": 572,
      "land": 573,
      "Ġ18": 574,
      ".@": 575,
      "Ġ@.@": 576,
      "ult": 577,
      "ree": 578,
      "ough": 579,
      "ile": 580,
      "Ġwho": 581,
      "ĠAl": 582,
      "Ġsc": 583,
      "uring": 584,
      "pl": 585,
      "ory": 586,
      "ition": 587,
      "ric": 588,
      "ations": 589,
      "Ġdis": 590,
      "Ġthis": 591,
      "Ġbec": 592,
      "Ġapp": 593,
      "iz": 594,
      "ĠIt": 595,
      "are": 596,
      "ach": 597,
      "lud": 598,
      "ade": 599,
      "Ġplay": 600,
      "Ġj": 601,
      "Ġman": 602,
      "act": 603,
      "ely": 604,
      "Ġpart": 605,
      "Ġdes": 606,
      "Ġag": 607,
      "Ġthey": 608,
      "Ġyear": 609,
      "ount": 610,
      "Ġ201": 611,
      "Ġover": 612,
      "Ġother": 613,
      "ound": 614,
      "Ġafter": 615,
      "ib": 616,
      "over": 617,
      "Ġser": 618,
      "Ġen": 619,
      "Ġoff": 620,
      "Ġim": 621,
      "ction": 622,
      "ĠY": 623,
      "ke": 624,
      "ite": 625,
      ",@": 626,
      "Ġ@,@": 627,
      "te": 628,
      "urn": 629,
      "Ġinclud": 630,
      "ress": 631,
      "ance": 632,
      "ang": 633,
      "Ġatt": 634,
      "ice": 635,
      "ace": 636,
      "ark": 637,
      "Ġout": 638,
      "wn": 639,
      "ph": 640,
      "ember": 641,
      "Ġpre": 642,
      "Ġup": 643,
      "ens": 644,
      "man": 645,
      "Ġev": 646,
      "Ġtime": 647,
      "nder": 648,
      "rough": 649,
      "ced": 650,
      "Ġfin": 651,
      "Ġinto": 652,
      "one": 653,
      "port": 654,
      "round": 655,
      "we": 656,
      "ren": 657,
      "les": 658,
      "int": 659,
      "ĠOn": 660,
      "vel": 661,
      "Ġcomm": 662,
      "Ġshe": 663,
      "ason": 664,
      "amp": 665,
      "Ġte": 666,
      "Ġwould": 667,
      "ward": 668,
      "Ġmore": 669,
      "Ġ6": 670,
      "ied": 671,
      "ose": 672,
      "rib": 673,
      "ĠUn": 674,
      "Ġall": 675,
      "ings": 676,
      "tern": 677,
      "ces": 678,
      "able": 679,
      "Ġwe": 680,
      "ited": 681,
      "ever": 682,
      "ents": 683,
      "Ġhim": 684,
      "ased": 685,
      "ors": 686,
      "oy": 687,
      "ood": 688,
      "Ġcent": 689,
      "ix": 690,
      "ase": 691,
      "ild": 692,
      "ĠAn": 693,
      "Ġ7": 694,
      "Ġwork": 695,
      "ates": 696,
      "ious": 697,
      "ath": 698,
      "Ġpo": 699,
      "rop": 700,
      "old": 701,
      "als": 702,
      "iss": 703,
      "ey": 704,
      "ict": 705,
      "Ġfe": 706,
      "Ġthem": 707,
      "gan": 708,
      "Ġsec": 709,
      "Ġbet": 710,
      "Ġwhen": 711,
      "Ġsong": 712,
      "Ġrem": 713,
      "ep": 714,
      "form": 715,
      "ail": 716,
      "fer": 717,
      "Ġear": 718,
      "ubl": 719,
      "aw": 720,
      "Ġkn": 721,
      "ake": 722,
      "aus": 723,
      "Ġmost": 724,
      "Ġcons": 725,
      "Ġduring": 726,
      "ĠAs": 727,
      "orth": 728,
      "Ġnew": 729,
      "ered": 730,
      "ilm": 731,
      "ved": 732,
      "att": 733,
      "Ġonly": 734,
      "Ġ9": 735,
      "Ġdec": 736,
      "Ġ8": 737,
      "ick": 738,
      "Ġgame": 739,
      "ons": 740,
      "ug": 741,
      "Ġtr": 742,
      "ft": 743,
      "oth": 744,
      "ook": 745,
      "ĠMar": 746,
      "reat": 747,
      "way": 748,
      "Ġcan": 749,
      "ollow": 750,
      "outh": 751,
      "ween": 752,
      "ĠEn": 753,
      "Ġ199": 754,
      "ters": 755,
      "Ġrel": 756,
      "ind": 757,
      "Ġabout": 758,
      "Ġseason": 759,
      "Ġagain": 760,
      "ral": 761,
      "Ġthree": 762,
      "ational": 763,
      "Ġunder": 764,
      "ular": 765,
      "Ġme": 766,
      "Ġthan": 767,
      "ĠCom": 768,
      "ĠAr": 769,
      "hip": 770,
      "ob": 771,
      "Ġne": 772,
      "Ġbetween": 773,
      "Ġfl": 774,
      "hn": 775,
      "ve": 776,
      "Ġchar": 777,
      "Ġcol": 778,
      "Ġrecord": 779,
      "iew": 780,
      "ron": 781,
      "fore": 782,
      "Ġthrough": 783,
      "ision": 784,
      "orn": 785,
      "Ġ00": 786,
      "ock": 787,
      "Ġver": 788,
      "Ġlater": 789,
      "Ġnum": 790,
      "Ġend": 791,
      "olog": 792,
      "ames": 793,
      "Ġpos": 794,
      "Ġwrit": 795,
      "Ġprodu": 796,
      "Ġwhile": 797,
      "Ġact": 798,
      "Ġrele": 799,
      "Ġfilm": 800,
      "ished": 801,
      "Ġpr": 802,
      "ans": 803,
      "Ġreg": 804,
      "Ġform": 805,
      "Ġass": 806,
      "ĠSe": 807,
      "ury": 808,
      "ted": 809,
      "ts": 810,
      "Ġmade": 811,
      "Ġsub": 812,
      "Ġpe": 813,
      "Ġso": 814,
      "orld": 815,
      "Ġret": 816,
      "ĠNew": 817,
      "Ġspec": 818,
      "Ġacc": 819,
      "Ġqu": 820,
      "Ġwhere": 821,
      "ener": 822,
      "Ġmov": 823,
      "hes": 824,
      "meric": 825,
      "ating": 826,
      "Ġinter": 827,
      "ĠLe": 828,
      "ĠAmeric": 829,
      "Ġra": 830,
      "Ġsome": 831,
      "Ġco": 832,
      "Ġlar": 833,
      "Ġbu": 834,
      "Ġdef": 835,
      "bum": 836,
      "Ġac": 837,
      "Ġmus": 838,
      "Ġfollow": 839,
      "ĠAt": 840,
      "ins": 841,
      "ived": 842,
      "ific": 843,
      "ual": 844,
      "Ġam": 845,
      "Ġsuch": 846,
      "Ġsecond": 847,
      "ike": 848,
      "Ġfour": 849,
      "Ġind": 850,
      "ann": 851,
      "hen": 852,
      "Ġused": 853,
      "ĠRe": 854,
      "ics": 855,
      "lect": 856,
      "Ġday": 857,
      "iel": 858,
      "ily": 859,
      "ĠThis": 860,
      "Ġ0": 861,
      "Ġpubl": 862,
      "Ġcall": 863,
      "ĠJo": 864,
      "ll": 865,
      "Ġalbum": 866,
      "Ġ000": 867,
      "rans": 868,
      "Ġdo": 869,
      "any": 870,
      "Ġbefore": 871,
      "ros": 872,
      "ĠSh": 873,
      "Ġsy": 874,
      "aid": 875,
      "ĠEng": 876,
      "Ġbeing": 877,
      "Ġ10": 878,
      "uc": 879,
      "Ġep": 880,
      "Ġsupp": 881,
      "Ġthere": 882,
      "Ġyears": 883,
      "ars": 884,
      "owever": 885,
      "Ġent": 886,
      "ife": 887,
      "Ġhigh": 888,
      "Ġfound": 889,
      "ird": 890,
      "Ġno": 891,
      "Ġset": 892,
      "ines": 893,
      "iver": 894,
      "io": 895,
      "other": 896,
      "ject": 897,
      "Ġsur": 898,
      "aj": 899,
      "ten": 900,
      "Ġtra": 901,
      "Ġ12": 902,
      "ised": 903,
      "ities": 904,
      "velop": 905,
      "Ġbl": 906,
      "ale": 907,
      "Ġseries": 908,
      "Ġloc": 909,
      "Ġnumber": 910,
      "Ġpres": 911,
      "ane": 912,
      "ause": 913,
      "ode": 914,
      "ek": 915,
      "ton": 916,
      "ĠSc": 917,
      "ier": 918,
      "ise": 919,
      "Ġsever": 920,
      "ince": 921,
      "Ġboth": 922,
      "ank": 923,
      "row": 924,
      "irect": 925,
      "son": 926,
      "Ġthen": 927,
      "ĠBrit": 928,
      "iet": 929,
      "Ġ16": 930,
      "Ġepis": 931,
      "Ġincluding": 932,
      "its": 933,
      "igin": 934,
      "pr": 935,
      "Ġ/": 936,
      "Ġagainst": 937,
      "Ġwell": 938,
      "Ġbecame": 939,
      "Ġexp": 940,
      "Ġknown": 941,
      "Ġtrans": 942,
      "Ġcharac": 943,
      "ĠâĢĶ": 944,
      "ram": 945,
      "Ġback": 946,
      "Ġadd": 947,
      "Ġpop": 948,
      "Ġgo": 949,
      "urch": 950,
      "Ġdesc": 951,
      "Ġsing": 952,
      "ield": 953,
      "Ġperform": 954,
      "ained": 955,
      "Ġrece": 956,
      "ident": 957,
      "Ġem": 958,
      "ert": 959,
      "ures": 960,
      "Ġinv": 961,
      "Ġdep": 962,
      "Ġ198": 963,
      "air": 964,
      "ern": 965,
      "ather": 966,
      "ful": 967,
      "ĠZ": 968,
      "Ġmon": 969,
      "Ġmany": 970,
      "Ġmain": 971,
      "Ġstud": 972,
      "Ġlong": 973,
      "inn": 974,
      "though": 975,
      "up": 976,
      "ool": 977,
      "ĠUnited": 978,
      "led": 979,
      "ement": 980,
      "Ġ15": 981,
      "ower": 982,
      "ĠJohn": 983,
      "Ġop": 984,
      "Ġ11": 985,
      "ined": 986,
      "Ġmet": 987,
      "ober": 988,
      "ley": 989,
      "Ġ17": 990,
      "Ġcentury": 991,
      "Ġteam": 992,
      "Ġest": 993,
      "ĠAfter": 994,
      "yl": 995,
      "Ġmin": 996,
      "uch": 997,
      "ute": 998,
      "Ġdevelop": 999,
      "ĠShe": 1000,
      "iam": 1001,
      "Ġshow": 1002,
      "elf": 1003,
      "Ġrep": 1004,
      "Ġconc": 1005,
      "ative": 1006,
      "Ġcre": 1007,
      "overn": 1008,
      "ared": 1009,
      "Ġ194": 1010,
      "Ġorigin": 1011,
      "Ġsm": 1012,
      "ivers": 1013,
      "az": 1014,
      "Ġlead": 1015,
      "Ġseveral": 1016,
      "ah": 1017,
      "Ġob": 1018,
      "Ġrev": 1019,
      "Ġmill": 1020,
      "erm": 1021,
      "ually": 1022,
      "oot": 1023,
      "Ġbegan": 1024,
      "Ġ196": 1025,
      "ired": 1026,
      "Ġdif": 1027,
      "Ġcontin": 1028,
      "Ġsign": 1029,
      "ik": 1030,
      "ĠInd": 1031,
      "ments": 1032,
      "ized": 1033,
      "Ġ197": 1034,
      "Ġdirect": 1035,
      "au": 1036,
      "Ġext": 1037,
      "ross": 1038,
      "emb": 1039,
      "der": 1040,
      "Ġpol": 1041,
      "Ġmay": 1042,
      "apt": 1043,
      "els": 1044,
      "ĠWh": 1045,
      "Ġcomple": 1046,
      "Ġart": 1047,
      "ĠBr": 1048,
      "ĠIs": 1049,
      "une": 1050,
      "til": 1051,
      "Ġcrit": 1052,
      "Ġhist": 1053,
      "Ġearly": 1054,
      "Ġcould": 1055,
      "ĠCon": 1056,
      "Ġdid": 1057,
      "Ġbel": 1058,
      "Ġcalled": 1059,
      "ued": 1060,
      "Ġnear": 1061,
      "Ġepisode": 1062,
      "yp": 1063,
      "Ġdescrib": 1064,
      "imes": 1065,
      "Ġbro": 1066,
      "roup": 1067,
      "ople": 1068,
      "Ġdown": 1069,
      "Ġrun": 1070,
      "aking": 1071,
      "Ġdisc": 1072,
      "Ġalong": 1073,
      "ccess": 1074,
      "ĠMay": 1075,
      "Ġfeat": 1076,
      "Ġinst": 1077,
      "ĠAmerican": 1078,
      "Ġsaid": 1079,
      "Ġdist": 1080,
      "Ġinf": 1081,
      "Ġimp": 1082,
      "ink": 1083,
      "Ġins": 1084,
      "ty": 1085,
      "Ġthese": 1086,
      "Ġmil": 1087,
      "ven": 1088,
      "ĠGer": 1089,
      "gest": 1090,
      "ium": 1091,
      "enn": 1092,
      "ĠBl": 1093,
      "ĠAust": 1094,
      "Ġresp": 1095,
      "ull": 1096,
      "ruct": 1097,
      "ured": 1098,
      "Ġthough": 1099,
      "Ġship": 1100,
      "ove": 1101,
      "Ġoper": 1102,
      "ĠBritish": 1103,
      "Ã©": 1104,
      "Ġuntil": 1105,
      "Ġprev": 1106,
      "itt": 1107,
      "amed": 1108,
      "Ġcar": 1109,
      "cept": 1110,
      "Ġstart": 1111,
      "Ġcity": 1112,
      "Ġgener": 1113,
      "Ġsame": 1114,
      "ains": 1115,
      "ĠWar": 1116,
      "ists": 1117,
      "ially": 1118,
      "ided": 1119,
      "Ġreleased": 1120,
      "Ġland": 1121,
      "ism": 1122,
      "ĠCar": 1123,
      "Ġown": 1124,
      "Ġwar": 1125,
      "Ġany": 1126,
      "Ġprov": 1127,
      "Ġreturn": 1128,
      "Ġair": 1129,
      "ĠThey": 1130,
      "xt": 1131,
      "erson": 1132,
      "oman": 1133,
      "Ġmusic": 1134,
      "Ġkm": 1135,
      "Ġdesign": 1136,
      "ajor": 1137,
      "ĠPl": 1138,
      "ible": 1139,
      "osed": 1140,
      "Ġsim": 1141,
      "Ġconst": 1142,
      "Ġappear": 1143,
      "Ġmillion": 1144,
      "Ġbecause": 1145,
      "Ġfam": 1146,
      "ash": 1147,
      "Ġmat": 1148,
      "Ġarea": 1149,
      "Ġuse": 1150,
      "Ġ13": 1151,
      "ĠAug": 1152,
      "ĠChr": 1153,
      "ĠAugust": 1154,
      "Ġocc": 1155,
      "Ġph": 1156,
      "Ġopen": 1157,
      "Ġlike": 1158,
      "ony": 1159,
      "Ġsuccess": 1160,
      "ole": 1161,
      "ouse": 1162,
      "erv": 1163,
      "Ġcount": 1164,
      "Ġpass": 1165,
      "oss": 1166,
      "Ġeff": 1167,
      "Ġpeople": 1168,
      "my": 1169,
      "chool": 1170,
      "und": 1171,
      "ĠSp": 1172,
      "stem": 1173,
      "ĠCl": 1174,
      "Ġoffic": 1175,
      "ets": 1176,
      "Ġsix": 1177,
      "uth": 1178,
      "ange": 1179,
      "ues": 1180,
      "Ġ195": 1181,
      "Ġsupport": 1182,
      "Ġaround": 1183,
      "Ġsmall": 1184,
      "ĠCol": 1185,
      "ĠHowever": 1186,
      "ĠSept": 1187,
      "Ġdam": 1188,
      "Ġ%": 1189,
      "Ġadv": 1190,
      "Ġmod": 1191,
      "Ġele": 1192,
      "Ġnorth": 1193,
      "ĠJu": 1194,
      "ales": 1195,
      "Ġhead": 1196,
      "ient": 1197,
      "Ġgovern": 1198,
      "Ġgroup": 1199,
      "raph": 1200,
      "Ġcharacter": 1201,
      "Ġbr": 1202,
      "Ġgr": 1203,
      "Ġed": 1204,
      "Ġeach": 1205,
      "Ġpoint": 1206,
      "ĠSeptember": 1207,
      "ĠAd": 1208,
      "wards": 1209,
      "Ġconsid": 1210,
      "ution": 1211,
      "ĠDe": 1212,
      "ĠGerman": 1213,
      "Ġfollowing": 1214,
      "ĠWorld": 1215,
      "Ġlife": 1216,
      "Ġgu": 1217,
      "ĠComm": 1218,
      "ĠAll": 1219,
      "ĠAustral": 1220,
      "anc": 1221,
      "Ġann": 1222,
      "Ġcontro": 1223,
      "ural": 1224,
      "Ġfive": 1225,
      "Ġvar": 1226,
      "ys": 1227,
      "ĠHer": 1228,
      "ĠUS": 1229,
      "Ġattack": 1230,
      "ged": 1231,
      "Ġ193": 1232,
      "ording": 1233,
      "Ġresult": 1234,
      "Ġwill": 1235,
      "ina": 1236,
      "ck": 1237,
      "ĠQ": 1238,
      "Ġever": 1239,
      "ĠPro": 1240,
      "Ġ191": 1241,
      "ĠEu": 1242,
      "Ġlarge": 1243,
      "ĠMe": 1244,
      "ĠII": 1245,
      "lish": 1246,
      "ĠNorth": 1247,
      "ling": 1248,
      "Ġbook": 1249,
      "Ġreport": 1250,
      "ont": 1251,
      "ague": 1252,
      "ĠFran": 1253,
      "ble": 1254,
      "ĠFor": 1255,
      "ox": 1256,
      "aced": 1257,
      "hel": 1258,
      "ĠJune": 1259,
      "Ġtit": 1260,
      "ended": 1261,
      "dom": 1262,
      "ilt": 1263,
      "ives": 1264,
      "Ġ14": 1265,
      "ats": 1266,
      "Ġprom": 1267,
      "eb": 1268,
      "med": 1269,
      "Ġweek": 1270,
      "ately": 1271,
      "aving": 1272,
      "ored": 1273,
      "Ġstr": 1274,
      "ĠJan": 1275,
      "Ġsince": 1276,
      "ĠStates": 1277,
      "Ġfinal": 1278,
      "Ġmajor": 1279,
      "ax": 1280,
      "Ġsouth": 1281,
      "Ġreceived": 1282,
      "ĠSouth": 1283,
      "ivision": 1284,
      "ĠGu": 1285,
      "Ġname": 1286,
      "Ġpartic": 1287,
      "ery": 1288,
      "Ġhel": 1289,
      "ology": 1290,
      "ption": 1291,
      "ĠChrist": 1292,
      "Ġcare": 1293,
      "ĠOct": 1294,
      "Ġpublic": 1295,
      "Ġrest": 1296,
      "Ġsystem": 1297,
      "ected": 1298,
      "ility": 1299,
      "ĠBe": 1300,
      "ting": 1301,
      "ĠKing": 1302,
      "Ġstate": 1303,
      "Ġbatt": 1304,
      "ae": 1305,
      "Ġwhat": 1306,
      "ages": 1307,
      "uary": 1308,
      "Ġlast": 1309,
      "rand": 1310,
      "Ġdescribed": 1311,
      "ĠOctober": 1312,
      "Ġline": 1313,
      "Ġclass": 1314,
      "Ġ$": 1315,
      "Ġdet": 1316,
      "iving": 1317,
      "raft": 1318,
      "ĠNov": 1319,
      "Ġplayed": 1320,
      "Ġprot": 1321,
      "Ġincre": 1322,
      "aur": 1323,
      "ropical": 1324,
      "Ġtook": 1325,
      "Ġmar": 1326,
      "Ġnow": 1327,
      "ified": 1328,
      "aim": 1329,
      "ĠPar": 1330,
      "ional": 1331,
      "get": 1332,
      "rote": 1333,
      "ants": 1334,
      "ody": 1335,
      "Ġ[": 1336,
      "Ġ]": 1337,
      "ively": 1338,
      "ĠYork": 1339,
      "Ġbuild": 1340,
      "Ġworld": 1341,
      "..": 1342,
      "Ġlate": 1343,
      "ĠDec": 1344,
      "yc": 1345,
      "Ġ25": 1346,
      "ĠJuly": 1347,
      "Ġwrote": 1348,
      "empt": 1349,
      "ball": 1350,
      "by": 1351,
      "esp": 1352,
      "ĠEurop": 1353,
      "ret": 1354,
      "Ġwon": 1355,
      "app": 1356,
      "ideo": 1357,
      "Ġspecies": 1358,
      "sion": 1359,
      "Ġchild": 1360,
      "ians": 1361,
      "Ġ...": 1362,
      "omet": 1363,
      "iod": 1364,
      "Ġport": 1365,
      "Ġmuch": 1366,
      "ĠCan": 1367,
      "ĠDuring": 1368,
      "Ġconf": 1369,
      "Ġserv": 1370,
      "Ġcamp": 1371,
      "ection": 1372,
      "Ġref": 1373,
      "Ġdue": 1374,
      "ech": 1375,
      "Ġshort": 1376,
      "arn": 1377,
      "Ġallow": 1378,
      "Ġsingle": 1379,
      "ĠApr": 1380,
      "ĠApril": 1381,
      "Ġdiffer": 1382,
      "Ġjust": 1383,
      "Ġdeath": 1384,
      "ically": 1385,
      "ract": 1386,
      "Ġstar": 1387,
      "Ġsl": 1388,
      "Ġgun": 1389,
      "ission": 1390,
      "omin": 1391,
      "ital": 1392,
      "ĠMc": 1393,
      "ĠAnd": 1394,
      "Ġanother": 1395,
      "Ġincluded": 1396,
      "ĠMus": 1397,
      "Ġposs": 1398,
      "ai": 1399,
      "Ġold": 1400,
      "Ġtri": 1401,
      "ham": 1402,
      "Ġstorm": 1403,
      "ĠGe": 1404,
      "Ġvis": 1405,
      "ĠJanuary": 1406,
      "Ġ30": 1407,
      "Ġlist": 1408,
      "Ġleft": 1409,
      "Ġeven": 1410,
      "Ġpar": 1411,
      "Ġwithin": 1412,
      "ĠEngland": 1413,
      "ple": 1414,
      "Ġprog": 1415,
      "Ġappro": 1416,
      "ger": 1417,
      "itions": 1418,
      "Ġnamed": 1419,
      "ops": 1420,
      "Ġbased": 1421,
      "Ġestab": 1422,
      "Ġif": 1423,
      "inc": 1424,
      "Ġalthough": 1425,
      "Ġattempt": 1426,
      "Ġtop": 1427,
      "ilar": 1428,
      "Ġtrack": 1429,
      "Ġvery": 1430,
      "Ġbelie": 1431,
      "Ġbre": 1432,
      "Ġthird": 1433,
      "ards": 1434,
      "Ġhum": 1435,
      "Ġwater": 1436,
      "ĠMarch": 1437,
      "ene": 1438,
      "Ġgames": 1439,
      "Ġorgan": 1440,
      "ched": 1441,
      "orp": 1442,
      "ently": 1443,
      "Ġbeg": 1444,
      "Ġpower": 1445,
      "Ġevent": 1446,
      "Ġprevious": 1447,
      "Ġfamily": 1448,
      "Ġschool": 1449,
      "ms": 1450,
      "Ġbest": 1451,
      "urric": 1452,
      "ulation": 1453,
      "ĠNovember": 1454,
      "ances": 1455,
      "Ġperiod": 1456,
      "Ġreview": 1457,
      "Ġway": 1458,
      "ĠHis": 1459,
      "Ġmen": 1460,
      "aster": 1461,
      "Ġexpl": 1462,
      "Ġhome": 1463,
      "ĠEurope": 1464,
      "Ġfur": 1465,
      "que": 1466,
      "Ġgovernment": 1467,
      "Ġtyp": 1468,
      "ĠBy": 1469,
      "ĠPh": 1470,
      "ience": 1471,
      "Ġturn": 1472,
      "Ġ192": 1473,
      "ĠDecember": 1474,
      "let": 1475,
      "ature": 1476,
      "Ġcap": 1477,
      "Ġthose": 1478,
      "Ġhand": 1479,
      "ĠThere": 1480,
      "avy": 1481,
      "Ġplace": 1482,
      "ached": 1483,
      "Ġmed": 1484,
      "hest": 1485,
      "ĠCity": 1486,
      "Ġstory": 1487,
      "oint": 1488,
      "aged": 1489,
      "Ġbuilt": 1490,
      "eder": 1491,
      "amb": 1492,
      "Ġgreat": 1493,
      "ense": 1494,
      "Ġdr": 1495,
      "ences": 1496,
      "Ġperson": 1497,
      "iven": 1498,
      "Ġcommand": 1499,
      "Ġ100": 1500,
      "Ġkill": 1501,
      "ĠFl": 1502,
      "ĠWhen": 1503,
      "oci": 1504,
      "Ġmonth": 1505,
      "Ġsent": 1506,
      "itary": 1507,
      "elt": 1508,
      "Ġopp": 1509,
      "Ġmake": 1510,
      "Ġoriginal": 1511,
      "iversity": 1512,
      "oad": 1513,
      "ĠÂ": 1514,
      "Ġhal": 1515,
      "Ġrequ": 1516,
      "ves": 1517,
      "ides": 1518,
      "ĠPr": 1519,
      "ĠNational": 1520,
      "Ġeng": 1521,
      "gy": 1522,
      "ness": 1523,
      "ention": 1524,
      "Ġ2009": 1525,
      "ĠOr": 1526,
      "Ġ2010": 1527,
      "Ġauth": 1528,
      "Ġvideo": 1529,
      "Ġ2008": 1530,
      "bs": 1531,
      "Ġant": 1532,
      "ison": 1533,
      "Ġmark": 1534,
      "Ġdem": 1535,
      "Ġsug": 1536,
      "ruction": 1537,
      "akes": 1538,
      "Ġpresent": 1539,
      "line": 1540,
      "Ġleg": 1541,
      "Ġclub": 1542,
      "ĠMan": 1543,
      "ĠRiver": 1544,
      "rench": 1545,
      "ival": 1546,
      "Ġview": 1547,
      "ĠBro": 1548,
      "riend": 1549,
      "oard": 1550,
      "Ġrepl": 1551,
      "ograph": 1552,
      "Ġcapt": 1553,
      "alk": 1554,
      "Ġstill": 1555,
      "Ġmoved": 1556,
      "Ġlocal": 1557,
      "Ġstand": 1558,
      "eng": 1559,
      "Ġled": 1560,
      "Ġrole": 1561,
      "ott": 1562,
      "aining": 1563,
      "ler": 1564,
      "Ġterm": 1565,
      "Ġcame": 1566,
      "aken": 1567,
      "Ġdest": 1568,
      "Ġiss": 1569,
      "ories": 1570,
      "ung": 1571,
      "side": 1572,
      "idge": 1573,
      "mp": 1574,
      "Ġdra": 1575,
      "Ġoften": 1576,
      "Ġcommon": 1577,
      "Ġaddition": 1578,
      "Ġhistory": 1579,
      "urricane": 1580,
      "Ġcaus": 1581,
      "lev": 1582,
      "sh": 1583,
      "ĠComp": 1584,
      "atter": 1585,
      "Ġtrad": 1586,
      "rew": 1587,
      "Ġfew": 1588,
      "ĠNo": 1589,
      "ĠWe": 1590,
      "ĠChar": 1591,
      "Ġsuggest": 1592,
      "lu": 1593,
      "read": 1594,
      "ister": 1595,
      "ĠAb": 1596,
      "Ġ2007": 1597,
      "Ġnext": 1598,
      "Ġeffect": 1599,
      "Ġconsidered": 1600,
      "Ġbas": 1601,
      "Ġdeb": 1602,
      "Ġplayer": 1603,
      "ĠOne": 1604,
      "ior": 1605,
      "Ġcour": 1606,
      "astern": 1607,
      "Ġmid": 1608,
      "ĠTr": 1609,
      "ĠEnglish": 1610,
      "Ġhelp": 1611,
      "ead": 1612,
      "Ġexper": 1613,
      "uted": 1614,
      "ĠFrench": 1615,
      "Ġcareer": 1616,
      "Ġside": 1617,
      "Ġsimilar": 1618,
      "Ġrecorded": 1619,
      "ĠBatt": 1620,
      "ays": 1621,
      "Ġright": 1622,
      "ĠX": 1623,
      "Ġwin": 1624,
      "Ġinit": 1625,
      "Ġimport": 1626,
      "ĠAcc": 1627,
      "Ġreal": 1628,
      "self": 1629,
      "ĠRec": 1630,
      "Ġclaim": 1631,
      "Ġcover": 1632,
      "Ġarch": 1633,
      "Ġcompany": 1634,
      "be": 1635,
      "ining": 1636,
      "Ġtown": 1637,
      "Ġpublished": 1638,
      "Ġsold": 1639,
      "Ġcontinued": 1640,
      "Ġrefer": 1641,
      "Ġexc": 1642,
      "Ġwind": 1643,
      "Ġdifferent": 1644,
      "Ġyou": 1645,
      "Ġtake": 1646,
      "Ġwithout": 1647,
      "ternational": 1648,
      "Ġsongs": 1649,
      "ĠWith": 1650,
      "yn": 1651,
      "Ġtot": 1652,
      "ĠPer": 1653,
      "ĠPort": 1654,
      "Ġroad": 1655,
      "Ġformer": 1656,
      "Ġ21": 1657,
      "Ġpolit": 1658,
      "Ġtw": 1659,
      "Ġtem": 1660,
      "ĠBar": 1661,
      "Ġheld": 1662,
      "ches": 1663,
      "ĠTe": 1664,
      "Ġmemb": 1665,
      "Ġamong": 1666,
      "Ġlevel": 1667,
      "Ġel": 1668,
      "ĠWill": 1669,
      "ning": 1670,
      "Ġfield": 1671,
      "Ġmag": 1672,
      "par": 1673,
      "Ġelect": 1674,
      "ner": 1675,
      "iment": 1676,
      "Ġav": 1677,
      "itar": 1678,
      "Ġdel": 1679,
      "uss": 1680,
      "Ġprop": 1681,
      "Ġwritten": 1682,
      "inning": 1683,
      "iter": 1684,
      "resent": 1685,
      "Ġevery": 1686,
      "ĠAm": 1687,
      "ĠState": 1688,
      "estern": 1689,
      "Ġ23": 1690,
      "ĠEar": 1691,
      "Ġcommun": 1692,
      "Ġhalf": 1693,
      "lear": 1694,
      "yle": 1695,
      "ĠDivision": 1696,
      "ampions": 1697,
      "Ġ2011": 1698,
      "Ġrelease": 1699,
      "ried": 1700,
      "Ġfurther": 1701,
      "ots": 1702,
      "Ġbecome": 1703,
      "Ġwest": 1704,
      "Ġ2006": 1705,
      "ensive": 1706,
      "ĠAccording": 1707,
      "Ġcr": 1708,
      "enc": 1709,
      "rodu": 1710,
      "Ġchurch": 1711,
      "ĠAlthough": 1712,
      "Ġstrong": 1713,
      "Ġfore": 1714,
      "Ġhowever": 1715,
      "Ġdays": 1716,
      "roy": 1717,
      "Ġfind": 1718,
      "ĠCanad": 1719,
      "Ġcur": 1720,
      "ices": 1721,
      "Ġeast": 1722,
      "ising": 1723,
      "ĠCount": 1724,
      "Ġversion": 1725,
      "Ġfoot": 1726,
      "Ġbeh": 1727,
      "Ġspe": 1728,
      "augh": 1729,
      "Ġparticular": 1730,
      "ering": 1731,
      "Ġ&": 1732,
      "Ġmy": 1733,
      "Ġlow": 1734,
      "ĠChurch": 1735,
      "ize": 1736,
      "ebru": 1737,
      "ĠGener": 1738,
      "Ġprof": 1739,
      "Ġcompet": 1740,
      "Ġposition": 1741,
      "Ġtitle": 1742,
      "Ġ24": 1743,
      "ĠWest": 1744,
      "Ġmilitary": 1745,
      "ĠRoman": 1746,
      "Ġconv": 1747,
      "Ġauthor": 1748,
      "Ġ22": 1749,
      "Ġ26": 1750,
      "Ġappe": 1751,
      "reen": 1752,
      "Ġorder": 1753,
      "ĠLeague": 1754,
      "outher": 1755,
      "Ġsol": 1756,
      "ront": 1757,
      "ittle": 1758,
      "Ġcontrol": 1759,
      "outhern": 1760,
      "Ġtimes": 1761,
      "ĠSong": 1762,
      "aces": 1763,
      "fric": 1764,
      "Ġband": 1765,
      "ĠFebru": 1766,
      "ĠFebruary": 1767,
      "Ġfre": 1768,
      "pped": 1769,
      "Ġless": 1770,
      "Ġgave": 1771,
      "Ġproject": 1772,
      "Ġvict": 1773,
      "Ġdefe": 1774,
      "ylan": 1775,
      "ĠGeor": 1776,
      "osp": 1777,
      "ĠAss": 1778,
      "Ġ!": 1779,
      "ĠDylan": 1780,
      "Ġchang": 1781,
      "Ġreported": 1782,
      "Ġmembers": 1783,
      "Ġnort": 1784,
      "ĠPark": 1785,
      "rick": 1786,
      "Ġnov": 1787,
      "Ġproduced": 1788,
      "Ġstat": 1789,
      "levision": 1790,
      "Ġtotal": 1791,
      "isc": 1792,
      "arm": 1793,
      "eter": 1794,
      "hern": 1795,
      "Ġ2012": 1796,
      "aying": 1797,
      "ĠOld": 1798,
      "Ġarr": 1799,
      "iety": 1800,
      "Ġcult": 1801,
      "Ġpopular": 1802,
      "Ġter": 1803,
      "Ġfire": 1804,
      "esc": 1805,
      "oung": 1806,
      "ailed": 1807,
      "Ġproduction": 1808,
      "urs": 1809,
      "apan": 1810,
      "Ġobs": 1811,
      "Ġtropical": 1812,
      "hem": 1813,
      "ĠSim": 1814,
      "Ġ28": 1815,
      "ĠPol": 1816,
      "ression": 1817,
      "Ġpost": 1818,
      "Ġforces": 1819,
      "ĠSte": 1820,
      "Ġcritic": 1821,
      "ford": 1822,
      "ĠHa": 1823,
      "ĠJapan": 1824,
      "Ġchildren": 1825,
      "Ġhistor": 1826,
      "Ġpat": 1827,
      "Ġhaving": 1828,
      "ush": 1829,
      "ĠEd": 1830,
      "Ġinclude": 1831,
      "ald": 1832,
      "echn": 1833,
      "ring": 1834,
      "ours": 1835,
      "Ġsurv": 1836,
      "Ġinvol": 1837,
      "Ġinflu": 1838,
      "alion": 1839,
      "ne": 1840,
      "Ġsk": 1841,
      "Ġlost": 1842,
      "rent": 1843,
      "Ġaff": 1844,
      "atic": 1845,
      "ĠSu": 1846,
      "Ġgiven": 1847,
      "Ġcountry": 1848,
      "Ġwant": 1849,
      "ably": 1850,
      "Ġrepresent": 1851,
      "work": 1852,
      "ĠEl": 1853,
      "Ġsignific": 1854,
      "ĠCent": 1855,
      "omen": 1856,
      "ĠDav": 1857,
      "Ġmanag": 1858,
      "ope": 1859,
      "ploy": 1860,
      "ĠGeneral": 1861,
      "Ġpress": 1862,
      "Ġequ": 1863,
      "vers": 1864,
      "Ġ2013": 1865,
      "ges": 1866,
      "Ġeight": 1867,
      "ĠMiss": 1868,
      "Ġcomb": 1869,
      "reet": 1870,
      "Ġsit": 1871,
      "Ġsite": 1872,
      "ades": 1873,
      "Ġseen": 1874,
      "irc": 1875,
      "Ġprogram": 1876,
      "sp": 1877,
      "ones": 1878,
      "oon": 1879,
      "Ġmaking": 1880,
      "ĠAfric": 1881,
      "Ġnever": 1882,
      "Ġmatch": 1883,
      "ration": 1884,
      "Ġfem": 1885,
      "Ġstated": 1886,
      "Ġestabl": 1887,
      "Ã¡": 1888,
      "ither": 1889,
      "Ġbody": 1890,
      "Ġplan": 1891,
      "Ġfact": 1892,
      "Ġread": 1893,
      "Ġord": 1894,
      "Ġshould": 1895,
      "ĠWhile": 1896,
      "ĠEv": 1897,
      "sequ": 1898,
      "Ġ50": 1899,
      "Ġreturned": 1900,
      "fic": 1901,
      "ator": 1902,
      "ĠUniversity": 1903,
      "ological": 1904,
      "Ġsoc": 1905,
      "Ġft": 1906,
      "aun": 1907,
      "Ġer": 1908,
      "Ġsound": 1909,
      "Ġ190": 1910,
      "Äģ": 1911,
      "rem": 1912,
      "Ġhow": 1913,
      "ape": 1914,
      "ĠThese": 1915,
      "Ġgen": 1916,
      "Ġisland": 1917,
      "ĠNe": 1918,
      "ĠAmerica": 1919,
      "Ġcou": 1920,
      "Ġstruct": 1921,
      "Ġearl": 1922,
      "Ġships": 1923,
      "Ġannoun": 1924,
      "Ġestablished": 1925,
      "ampionship": 1926,
      "Ġgod": 1927,
      "Ġground": 1928,
      "ĠJack": 1929,
      "Ġchart": 1930,
      "Ġpopulation": 1931,
      "aff": 1932,
      "ream": 1933,
      "Ġcat": 1934,
      "Ġdiv": 1935,
      "Ġreached": 1936,
      "Ġjo": 1937,
      "ground": 1938,
      "Ġ27": 1939,
      "na": 1940,
      "view": 1941,
      "reland": 1942,
      "Ġlight": 1943,
      "Ġnoted": 1944,
      "aul": 1945,
      "ki": 1946,
      "Ġaway": 1947,
      "Ġfriend": 1948,
      "ĠIreland": 1949,
      "ĠBlack": 1950,
      "ille": 1951,
      "igade": 1952,
      "used": 1953,
      "ument": 1954,
      "ination": 1955,
      "ffic": 1956,
      "ese": 1957,
      "Ġlim": 1958,
      "oll": 1959,
      "Ġthroughout": 1960,
      "Ġacross": 1961,
      "ĠReg": 1962,
      "Ġdeveloped": 1963,
      "Ġthought": 1964,
      "iec": 1965,
      "ĠMich": 1966,
      "ĠLond": 1967,
      "Ġseven": 1968,
      "Ġsomet": 1969,
      "Ġcast": 1970,
      "aint": 1971,
      "ords": 1972,
      "ster": 1973,
      "Ġgl": 1974,
      "Ġproc": 1975,
      "ĠWilliam": 1976,
      "ĠLondon": 1977,
      "Ġpra": 1978,
      "Ġrad": 1979,
      "Ġintrodu": 1980,
      "af": 1981,
      "Ġgood": 1982,
      "ĠFeder": 1983,
      "Ġusing": 1984,
      "Ġhimself": 1985,
      "Ġdevelopment": 1986,
      "Ġblack": 1987,
      "iness": 1988,
      "omb": 1989,
      "Ġhig": 1990,
      "ĠHar": 1991,
      "Ġfelt": 1992,
      "idence": 1993,
      "reek": 1994,
      "ĠAustralia": 1995,
      "Ġhuman": 1996,
      "Ġsignificant": 1997,
      "Ġide": 1998,
      "ĠAir": 1999,
      "utes": 2000,
      "aren": 2001,
      "Ġwat": 2002,
      "Ġperformed": 2003,
      "Ġbar": 2004,
      "ump": 2005,
      "Ġimportant": 2006,
      "most": 2007,
      "ivil": 2008,
      "ĠGl": 2009,
      "Ġadm": 2010,
      "ĠAtl": 2011,
      "itive": 2012,
      "Ġnight": 2013,
      "Ġwriting": 2014,
      "Ġfun": 2015,
      "ĠPal": 2016,
      "ĠRich": 2017,
      "ĠEx": 2018,
      "Ġdestroy": 2019,
      "Ġfather": 2020,
      "ĠMag": 2021,
      "Ġmiles": 2022,
      "Ġbo": 2023,
      "antic": 2024,
      "Ġtelevision": 2025,
      "ĠRoy": 2026,
      "Ġinterest": 2027,
      "Ġvarious": 2028,
      "osaur": 2029,
      "Ġareas": 2030,
      "ief": 2031,
      "Ġtour": 2032,
      "imately": 2033,
      "Ġwhite": 2034,
      "Ġmodern": 2035,
      "Ġfull": 2036,
      "field": 2037,
      "Ġten": 2038,
      "Ġdied": 2039,
      "ĠCal": 2040,
      "Ġlook": 2041,
      "rie": 2042,
      "ogn": 2043,
      "Ġenc": 2044,
      "Ġactiv": 2045,
      "ael": 2046,
      "aign": 2047,
      "Ġwent": 2048,
      "Ġlaw": 2049,
      "ĠRober": 2050,
      "Ġneed": 2051,
      "Ġtro": 2052,
      "Ġevents": 2053,
      "Ġprim": 2054,
      "Ġdoes": 2055,
      "Ġsuccessful": 2056,
      "ĠRoad": 2057,
      "ico": 2058,
      "Ġred": 2059,
      "ization": 2060,
      "Ġdiscover": 2061,
      "Ġplayers": 2062,
      "Ġstarted": 2063,
      "Ġmm": 2064,
      "ĠTo": 2065,
      "rab": 2066,
      "ĠJames": 2067,
      "Ġdecl": 2068,
      "con": 2069,
      "reg": 2070,
      "Ġball": 2071,
      "ript": 2072,
      "Ġsee": 2073,
      "iting": 2074,
      "Ġhouse": 2075,
      "Ġfeet": 2076,
      "Ġformed": 2077,
      "ks": 2078,
      "Ġwid": 2079,
      "ourn": 2080,
      "Ġpoem": 2081,
      "Ġtechn": 2082,
      "Ġmix": 2083,
      "Ġrange": 2084,
      "ĠMount": 2085,
      "Ġsett": 2086,
      "Ġperformance": 2087,
      "ĠCounty": 2088,
      "rest": 2089,
      "Ġput": 2090,
      "Ġstyle": 2091,
      "Ġvill": 2092,
      "Ġrelations": 2093,
      "Ġbuilding": 2094,
      "Ġage": 2095,
      "Ġsum": 2096,
      "Ġtoo": 2097,
      "Ġforce": 2098,
      "abor": 2099,
      "Ġcaused": 2100,
      "ÃŃ": 2101,
      "ana": 2102,
      "Ġke": 2103,
      "ino": 2104,
      "epend": 2105,
      "ara": 2106,
      "ĠYou": 2107,
      "alth": 2108,
      "ĠKe": 2109,
      "ublic": 2110,
      "Ġsw": 2111,
      "ened": 2112,
      "ĠCro": 2113,
      "Ġnovel": 2114,
      "Ġpri": 2115,
      "iers": 2116,
      "isted": 2117,
      "Ġ189": 2118,
      "Ġcreated": 2119,
      "Ġofficial": 2120,
      "day": 2121,
      "fall": 2122,
      "idd": 2123,
      "elling": 2124,
      "asing": 2125,
      "ĠSom": 2126,
      "Ġ2004": 2127,
      "ĠAng": 2128,
      "ym": 2129,
      "Ġpit": 2130,
      "Ġ2005": 2131,
      "Ġrelig": 2132,
      "Ġentire": 2133,
      "gr": 2134,
      "less": 2135,
      "Ġson": 2136,
      "ality": 2137,
      "eth": 2138,
      "ĠOl": 2139,
      "Ġable": 2140,
      "Ġcoast": 2141,
      "Ġpolitical": 2142,
      "ĠHigh": 2143,
      "ries": 2144,
      "ressed": 2145,
      "Ġcharacters": 2146,
      "ĠSec": 2147,
      "Ġste": 2148,
      "inal": 2149,
      "Ġget": 2150,
      "ĠHam": 2151,
      "Ġothers": 2152,
      "Ġconstruction": 2153,
      "Ġcert": 2154,
      "Ġbird": 2155,
      "Ġpred": 2156,
      "Ġpromot": 2157,
      "ases": 2158,
      "Ġbattle": 2159,
      "br": 2160,
      "ĠTown": 2161,
      "Ġnational": 2162,
      "ways": 2163,
      "acy": 2164,
      "Ġoccur": 2165,
      "oming": 2166,
      "Ġval": 2167,
      "ĠâĢĻ": 2168,
      "Ġfig": 2169,
      "ĠSw": 2170,
      "ample": 2171,
      "Ġlik": 2172,
      "ament": 2173,
      "Ġonce": 2174,
      "ĠHist": 2175,
      "play": 2176,
      "ficult": 2177,
      "Ġfac": 2178,
      "Ġremained": 2179,
      "por": 2180,
      "ĠCare": 2181,
      "ĠBra": 2182,
      "Ġlocated": 2183,
      "Ġmount": 2184,
      "Ġtradition": 2185,
      "enth": 2186,
      "ivid": 2187,
      "Ġrock": 2188,
      "Ġscored": 2189,
      "Ġworks": 2190,
      "Ġdifficult": 2191,
      "ĠKingdom": 2192,
      "craft": 2193,
      "Ġredu": 2194,
      "Ġ31": 2195,
      "Ġproduc": 2196,
      "lected": 2197,
      "ĠIsland": 2198,
      "Ġcampaign": 2199,
      "Ġguns": 2200,
      "Ġtre": 2201,
      "Ġcross": 2202,
      "ĠCup": 2203,
      "ĠMon": 2204,
      "Ġstars": 2205,
      "ĠGrand": 2206,
      "Ġmeet": 2207,
      "Ġcompleted": 2208,
      "ĠAustralian": 2209,
      "Ġannounced": 2210,
      "Ġrank": 2211,
      "Ġregion": 2212,
      "Ġhold": 2213,
      "ett": 2214,
      "Ġsqu": 2215,
      "orse": 2216,
      "Ġnuc": 2217,
      "ounc": 2218,
      "off": 2219,
      "itted": 2220,
      "Ġgrow": 2221,
      "Ġsuper": 2222,
      "Ġcolle": 2223,
      "Ġgoal": 2224,
      "ĠCompany": 2225,
      "ique": 2226,
      "oid": 2227,
      "Ġfav": 2228,
      "arch": 2229,
      "Ġlittle": 2230,
      "Ġconn": 2231,
      "umb": 2232,
      "Ġlet": 2233,
      "Ġprocess": 2234,
      "ray": 2235,
      "enced": 2236,
      "Ġfight": 2237,
      "Ġfront": 2238,
      "aly": 2239,
      "omp": 2240,
      "rought": 2241,
      "Ġinstead": 2242,
      "ĠAct": 2243,
      "ky": 2244,
      "Ġcirc": 2245,
      "Ġ29": 2246,
      "Ġadded": 2247,
      "here": 2248,
      "leet": 2249,
      "ĠMor": 2250,
      "Ġcond": 2251,
      "omm": 2252,
      "Ġleast": 2253,
      "duct": 2254,
      "Ġfollowed": 2255,
      "ĠBill": 2256,
      "Ġknow": 2257,
      "Ġpeak": 2258,
      "Ġappeared": 2259,
      "Ġborn": 2260,
      "Ġkilled": 2261,
      "Ġsouthern": 2262,
      "angu": 2263,
      "Ġoriginally": 2264,
      "Ġmonths": 2265,
      "oice": 2266,
      "Ġwife": 2267,
      "urb": 2268,
      "Ġcomment": 2269,
      "ĠArmy": 2270,
      "Ġstri": 2271,
      "ĠDavid": 2272,
      "mar": 2273,
      "Ġfif": 2274,
      "Ġmother": 2275,
      "Ġloss": 2276,
      "ota": 2277,
      "Ġ40": 2278,
      "Ġstudy": 2279,
      "ius": 2280,
      "Ġhurricane": 2281,
      "Ġassoci": 2282,
      "Ġwomen": 2283,
      "Ġcell": 2284,
      "ects": 2285,
      "ĠMusic": 2286,
      "Ġident": 2287,
      "Ġmass": 2288,
      "ston": 2289,
      "Ġeastern": 2290,
      "Ġnon": 2291,
      "Ġsex": 2292,
      "antry": 2293,
      "Ġagre": 2294,
      "Ġrelationship": 2295,
      "Ġaud": 2296,
      "Ġaward": 2297,
      "Ġ2003": 2298,
      "Ġcritics": 2299,
      "Ġbroad": 2300,
      "ycl": 2301,
      "Ġanim": 2302,
      "Ġ185": 2303,
      "Ġeventually": 2304,
      "Ġfeatures": 2305,
      "Ġprofess": 2306,
      "olution": 2307,
      "ĠGod": 2308,
      "ĠOther": 2309,
      "Ġvoc": 2310,
      "Ġyoung": 2311,
      "aper": 2312,
      "Ġrecogn": 2313,
      "Ġ2015": 2314,
      "gin": 2315,
      "ata": 2316,
      "Ġbus": 2317,
      "Ġlive": 2318,
      "ements": 2319,
      "ully": 2320,
      "ĠFrance": 2321,
      "Ġaver": 2322,
      "Ġfourth": 2323,
      "Ġtaken": 2324,
      "ĠSer": 2325,
      "emy": 2326,
      "Ġroute": 2327,
      "Ġestim": 2328,
      "cher": 2329,
      "ĠTwo": 2330,
      "ĠBer": 2331,
      "Ġserved": 2332,
      "liam": 2333,
      "ores": 2334,
      "istic": 2335,
      "ask": 2336,
      "Ġcommer": 2337,
      "Ġprote": 2338,
      "illa": 2339,
      "Ġappoint": 2340,
      "ography": 2341,
      "ze": 2342,
      "ĠCo": 2343,
      "omes": 2344,
      "Ġlack": 2345,
      "chie": 2346,
      "Ġdecided": 2347,
      "Ġdamage": 2348,
      "ama": 2349,
      "ĠMad": 2350,
      "unk": 2351,
      "Ġheavy": 2352,
      "igned": 2353,
      "azine": 2354,
      "Ġcor": 2355,
      "Ġbase": 2356,
      "Ġeither": 2357,
      "ĠIm": 2358,
      "ĠBattalion": 2359,
      "iation": 2360,
      "Ġfar": 2361,
      "Ġcondom": 2362,
      "Ġproble": 2363,
      "Ġsepar": 2364,
      "Ġarm": 2365,
      "Ġimpro": 2366,
      "Ġinsp": 2367,
      "val": 2368,
      "ĠPart": 2369,
      "ought": 2370,
      "Ġspecial": 2371,
      "Ġbehind": 2372,
      "ĠRobert": 2373,
      "Ġtoget": 2374,
      "ica": 2375,
      "ecut": 2376,
      "ĠLove": 2377,
      "Ġcoll": 2378,
      "Ġindivid": 2379,
      "Ġbelieved": 2380,
      "Ġtogether": 2381,
      "ida": 2382,
      "Ġarg": 2383,
      "Ġquar": 2384,
      "ency": 2385,
      "liament": 2386,
      "ipp": 2387,
      "aves": 2388,
      "Ġclos": 2389,
      "iction": 2390,
      "ouncil": 2391,
      "cial": 2392,
      "Ġmater": 2393,
      "rict": 2394,
      "Ġplaying": 2395,
      "ĠRoyal": 2396,
      "ĠCarey": 2397,
      "Ġburn": 2398,
      "Ġdou": 2399,
      "ĠRed": 2400,
      "rap": 2401,
      "aching": 2402,
      "iol": 2403,
      "iber": 2404,
      "ĠMed": 2405,
      "Ġmove": 2406,
      "Ġir": 2407,
      "Ġround": 2408,
      "Ġcreat": 2409,
      "Ġbi": 2410,
      "Ġlangu": 2411,
      "ĠHen": 2412,
      "ĠDu": 2413,
      "Ġvol": 2414,
      "Ġdev": 2415,
      "Ġexample": 2416,
      "Ġclose": 2417,
      "Ġaccept": 2418,
      "ĠMex": 2419,
      "gg": 2420,
      "ĠSome": 2421,
      "ĠMin": 2422,
      "Ġalmost": 2423,
      "Ġ188": 2424,
      "alt": 2425,
      "ests": 2426,
      "Ġservice": 2427,
      "Ġleading": 2428,
      "ĠEuropean": 2429,
      "Ġsour": 2430,
      "Ġfall": 2431,
      "ĠRep": 2432,
      "odes": 2433,
      "ĠWhite": 2434,
      "Ġgenerally": 2435,
      "ĠFederer": 2436,
      "Ġsaw": 2437,
      "ators": 2438,
      "Ġce": 2439,
      "Ġtowards": 2440,
      "Ġopened": 2441,
      "Ġelements": 2442,
      "eal": 2443,
      "Ġmiss": 2444,
      "Ġ35": 2445,
      "uter": 2446,
      "oring": 2447,
      "Ġbrought": 2448,
      "ĠBrigade": 2449,
      "Ġgeneral": 2450,
      "Ġweeks": 2451,
      "Ġmot": 2452,
      "ĠPres": 2453,
      "ceed": 2454,
      "ĠWales": 2455,
      "ĠGame": 2456,
      "ĠInternational": 2457,
      "Ġfinished": 2458,
      "Ġdraw": 2459,
      "Ġz": 2460,
      "stit": 2461,
      "Ġlaun": 2462,
      "ĠFlor": 2463,
      "Ġwall": 2464,
      "Ġhost": 2465,
      "oph": 2466,
      "ĠKh": 2467,
      "ĠViet": 2468,
      "Ġregular": 2469,
      "Ġhighway": 2470,
      "Ġfeatured": 2471,
      "cast": 2472,
      "ĠIr": 2473,
      "Ġcentral": 2474,
      "Ġaircraft": 2475,
      "lement": 2476,
      "irl": 2477,
      "ending": 2478,
      "Ġindust": 2479,
      "board": 2480,
      "ĠEast": 2481,
      "ordan": 2482,
      "ounter": 2483,
      "Ġresear": 2484,
      "Ġreb": 2485,
      "etwork": 2486,
      "Ġcontract": 2487,
      "Ġpoints": 2488,
      "eum": 2489,
      "Ġfund": 2490,
      "Ġinform": 2491,
      "Ġdirected": 2492,
      "Ġ-": 2493,
      "Ġaction": 2494,
      "Ġmi": 2495,
      "ĠMo": 2496,
      "orts": 2497,
      "Ġsuff": 2498,
      "ĠChampionship": 2499,
      "Ġmeas": 2500,
      "Ġdirector": 2501,
      "Ġprovided": 2502,
      "hing": 2503,
      "Ġcut": 2504,
      "icated": 2505,
      "Ġren": 2506,
      "ĠBo": 2507,
      "ĠFollow": 2508,
      "ude": 2509,
      "wood": 2510,
      "Ġflood": 2511,
      "Ġrespect": 2512,
      "Ġnar": 2513,
      "ĠJordan": 2514,
      "Ġsequ": 2515,
      "Ġupon": 2516,
      "Ġmean": 2517,
      "ential": 2518,
      "ĠFrom": 2519,
      "ĠGal": 2520,
      "Ġappearance": 2521,
      "ned": 2522,
      "ĠJew": 2523,
      "Ġyard": 2524,
      "ellow": 2525,
      "Ġ186": 2526,
      "Ġearlier": 2527,
      "sel": 2528,
      "ying": 2529,
      "atin": 2530,
      "ĠPe": 2531,
      "ĠRock": 2532,
      "ĠEm": 2533,
      "Ġking": 2534,
      "Ġcost": 2535,
      "ĠCr": 2536,
      "Ġrather": 2537,
      "ights": 2538,
      "Ġ2014": 2539,
      "Ġsubsequ": 2540,
      "Ġfemale": 2541,
      "ĠAtlantic": 2542,
      "Ġtroops": 2543,
      "tt": 2544,
      "ĠÃ": 2545,
      "Ġill": 2546,
      "Ġreve": 2547,
      "Ġstru": 2548,
      "ĠOd": 2549,
      "ishing": 2550,
      "medi": 2551,
      "ĠChristian": 2552,
      "Ġcurrent": 2553,
      "ĠMary": 2554,
      "ĠOp": 2555,
      "Ġve": 2556,
      "Ġriver": 2557,
      "Ġlargest": 2558,
      "Ġtravel": 2559,
      "Ġvictory": 2560,
      "ĠFollowing": 2561,
      "ĠHouse": 2562,
      "ander": 2563,
      "Ġemploy": 2564,
      "Ġoperations": 2565,
      "ĠHero": 2566,
      "Ġparticularly": 2567,
      "ĠGeorge": 2568,
      "Ġmanager": 2569,
      "Ġachie": 2570,
      "erous": 2571,
      "ouri": 2572,
      "Ġprob": 2573,
      "ule": 2574,
      "Ġfort": 2575,
      "Ġopening": 2576,
      "Ġwanted": 2577,
      "ving": 2578,
      "Ġcop": 2579,
      "Ġbur": 2580,
      "Ġ500": 2581,
      "ength": 2582,
      "Ġnorthern": 2583,
      "ault": 2584,
      "ĠMac": 2585,
      "ids": 2586,
      "osition": 2587,
      "Ġexist": 2588,
      "Ġyards": 2589,
      "Ġevidence": 2590,
      "ĠPlay": 2591,
      "áĥ": 2592,
      "ita": 2593,
      "Ġfoc": 2594,
      "Ġreason": 2595,
      "ĠSl": 2596,
      "eler": 2597,
      "Ġconduct": 2598,
      "ĠPhil": 2599,
      "ĠFlorida": 2600,
      "ee": 2601,
      "ih": 2602,
      "of": 2603,
      "yd": 2604,
      "head": 2605,
      "Ġmember": 2606,
      "ĠWal": 2607,
      "reng": 2608,
      "Ġpract": 2609,
      "uck": 2610,
      "vest": 2611,
      "Ġsaying": 2612,
      "oms": 2613,
      "ĠBay": 2614,
      "ĠWil": 2615,
      "anding": 2616,
      "ĠStreet": 2617,
      "Ġoutside": 2618,
      "Ġcrew": 2619,
      "Ġallowed": 2620,
      "Ġpossible": 2621,
      "Ġengine": 2622,
      "co": 2623,
      "west": 2624,
      "atural": 2625,
      "ĠMost": 2626,
      "ĠPaul": 2627,
      "Ġaccount": 2628,
      "ĠOliv": 2629,
      "uel": 2630,
      "Ġpast": 2631,
      "Ġmer": 2632,
      "ĠMark": 2633,
      "irth": 2634,
      "Ġstage": 2635,
      "Ġneg": 2636,
      "ĠMcC": 2637,
      "Ġhours": 2638,
      "Ġwhom": 2639,
      "Ġrespons": 2640,
      "conom": 2641,
      "Ġcase": 2642,
      "ington": 2643,
      "ago": 2644,
      "artment": 2645,
      "ĠMissouri": 2646,
      "Ġmaterial": 2647,
      "bor": 2648,
      "ills": 2649,
      "Ġ2001": 2650,
      "Ġdesp": 2651,
      "Ġworked": 2652,
      "Ġregard": 2653,
      "Ġfree": 2654,
      "Ġmach": 2655,
      "Ġlength": 2656,
      "Ġnec": 2657,
      "ĠBut": 2658,
      "Ġgre": 2659,
      "Ġstreng": 2660,
      "Ġobject": 2661,
      "Ġterrit": 2662,
      "ĠTech": 2663,
      "Ġgold": 2664,
      "Ġplann": 2665,
      "aps": 2666,
      "Ġworking": 2667,
      "Ġnomin": 2668,
      "vert": 2669,
      "ems": 2670,
      "lus": 2671,
      "ville": 2672,
      "aries": 2673,
      "ĠSan": 2674,
      "Ġlove": 2675,
      "Ġrul": 2676,
      "Ġpoor": 2677,
      "Ġquick": 2678,
      "Ġdesigned": 2679,
      "cent": 2680,
      "now": 2681,
      "uk": 2682,
      "ari": 2683,
      "ĠVir": 2684,
      "ĠQu": 2685,
      "Ġfootball": 2686,
      "onst": 2687,
      "Ġmult": 2688,
      "Ġhon": 2689,
      "urt": 2690,
      "ĠBus": 2691,
      "Ġlearn": 2692,
      "ĠIndian": 2693,
      "Ġconstruct": 2694,
      "Ġpraised": 2695,
      "ps": 2696,
      "Ġesc": 2697,
      "Ġtreat": 2698,
      "ĠTor": 2699,
      "ĠBest": 2700,
      "Ġforced": 2701,
      "Ġstation": 2702,
      "ĠDay": 2703,
      "ĠFirst": 2704,
      "ession": 2705,
      "Ġremains": 2706,
      "Ġavail": 2707,
      "rated": 2708,
      "ites": 2709,
      "iding": 2710,
      "Ġviol": 2711,
      "ĠVal": 2712,
      "Ġ187": 2713,
      "Ġgoals": 2714,
      "Ġ1970": 2715,
      "ĠMichael": 2716,
      "uation": 2717,
      "Ġthink": 2718,
      "gypt": 2719,
      "Ġwinds": 2720,
      "heast": 2721,
      "Ġcivil": 2722,
      "ĠSm": 2723,
      "ĠSqu": 2724,
      "Ġabove": 2725,
      "Ġdiss": 2726,
      "Ġinvest": 2727,
      "Ġincreased": 2728,
      "Ġpers": 2729,
      "ĠHel": 2730,
      "ĠFe": 2731,
      "ĠEgypt": 2732,
      "hens": 2733,
      "Ġpreviously": 2734,
      "ĠÂ£": 2735,
      "wh": 2736,
      "itz": 2737,
      "ĠDesp": 2738,
      "ula": 2739,
      "pper": 2740,
      "ĠThom": 2741,
      "Ġsoon": 2742,
      "Ġreplaced": 2743,
      "Ġcommercial": 2744,
      "asion": 2745,
      "ributed": 2746,
      "ĠRichard": 2747,
      "BC": 2748,
      "gl": 2749,
      "erved": 2750,
      "Ġmust": 2751,
      "ĠAc": 2752,
      "ĠAg": 2753,
      "ĠApp": 2754,
      "Ġask": 2755,
      "ĠGr": 2756,
      "Ġinterview": 2757,
      "Ġmaint": 2758,
      "ĠSuper": 2759,
      "Ġbusiness": 2760,
      "onc": 2761,
      "Ġclear": 2762,
      "Ġpain": 2763,
      "ste": 2764,
      "olic": 2765,
      "ĠWhe": 2766,
      "ription": 2767,
      "ĠDespite": 2768,
      "ĠCorp": 2769,
      "Ġly": 2770,
      "ĠDep": 2771,
      "osing": 2772,
      "abit": 2773,
      "Ġwriter": 2774,
      "ĠQue": 2775,
      "ĠBrown": 2776,
      "Ġquarter": 2777,
      "ming": 2778,
      "Ġtrib": 2779,
      "Ġthreat": 2780,
      "ĠMont": 2781,
      "Ġ2000": 2782,
      "Ġunc": 2783,
      "ĠÂ°": 2784,
      "ĠHenry": 2785,
      "AF": 2786,
      "atory": 2787,
      "ania": 2788,
      "Ġmph": 2789,
      "ĠOs": 2790,
      "Ġunits": 2791,
      "oney": 2792,
      "ĠCanada": 2793,
      "Ġestimated": 2794,
      "Ã³": 2795,
      "Ġpen": 2796,
      "ulf": 2797,
      "iff": 2798,
      "aker": 2799,
      "ibility": 2800,
      "Ġ1990": 2801,
      "Ġspecific": 2802,
      "Ġcourt": 2803,
      "ĠOldham": 2804,
      "face": 2805,
      "Ġpur": 2806,
      "Ġreact": 2807,
      "acing": 2808,
      "Ġ36": 2809,
      "Ġclaimed": 2810,
      "ĠJapanese": 2811,
      "Ġjoined": 2812,
      "Ġhighest": 2813,
      "band": 2814,
      "men": 2815,
      "ĠTimes": 2816,
      "ulated": 2817,
      "ching": 2818,
      "Ġplaced": 2819,
      "Ġcontr": 2820,
      "ĠCarol": 2821,
      "Ġinvolved": 2822,
      "ecutive": 2823,
      "ĠPresident": 2824,
      "for": 2825,
      "Ġwestern": 2826,
      "Ġfly": 2827,
      "ĠSun": 2828,
      "ĠGovern": 2829,
      "Ġpriv": 2830,
      "Ġsigned": 2831,
      "Ġsuggested": 2832,
      "leg": 2833,
      "ĠMos": 2834,
      "elled": 2835,
      "Ġ45": 2836,
      "Ġ183": 2837,
      "Ġparts": 2838,
      "Ġsyn": 2839,
      "ĠCard": 2840,
      "ĠMy": 2841,
      "ĠGold": 2842,
      "Ġintens": 2843,
      "ĠIndia": 2844,
      "ĠOlivier": 2845,
      "Ġtru": 2846,
      "Ġhous": 2847,
      "ĠSchool": 2848,
      "thlet": 2849,
      "ĠLater": 2850,
      "Ġproper": 2851,
      "Ġchange": 2852,
      "Ġleague": 2853,
      "Ġitself": 2854,
      "ĠVietn": 2855,
      "mb": 2856,
      "Ġesp": 2857,
      "Ġinj": 2858,
      "Ġdon": 2859,
      "ĠCong": 2860,
      "ĠHall": 2861,
      "Ġshot": 2862,
      "Ġrap": 2863,
      "anna": 2864,
      "Ġaverage": 2865,
      "ĠMexico": 2866,
      "ĠIrish": 2867,
      "Ġtaking": 2868,
      "Ġhard": 2869,
      "ĠNot": 2870,
      "ume": 2871,
      "Ġavailable": 2872,
      "Ġey": 2873,
      "urg": 2874,
      "Ġexcept": 2875,
      "Ġscene": 2876,
      "ronic": 2877,
      "Ġtransport": 2878,
      "Ġtransfer": 2879,
      "Ġbrother": 2880,
      "Ġbreak": 2881,
      "ready": 2882,
      "Ġintroduced": 2883,
      "Ġhit": 2884,
      "ĠPac": 2885,
      "Ġwhose": 2886,
      "Ġheav": 2887,
      "Ġrecording": 2888,
      "Ġvillage": 2889,
      "Ġwood": 2890,
      "Ġstop": 2891,
      "Ġrace": 2892,
      "ĠStar": 2893,
      "ĠVar": 2894,
      "Ġsubject": 2895,
      "Ġrail": 2896,
      "porary": 2897,
      "ĠThomas": 2898,
      "go": 2899,
      "rd": 2900,
      "ximately": 2901,
      "Ġslow": 2902,
      "Ġ60": 2903,
      "Ġphys": 2904,
      "Ġgrad": 2905,
      "Ġreligious": 2906,
      "Ġfr": 2907,
      "Ġmem": 2908,
      "Ġnetwork": 2909,
      "achel": 2910,
      "Ġgra": 2911,
      "Ġeduc": 2912,
      "Ġtold": 2913,
      "Ġnine": 2914,
      "Ġnames": 2915,
      "ĠNY": 2916,
      "Ġabs": 2917,
      "Ġremov": 2918,
      "ĠBritain": 2919,
      "Ġshows": 2920,
      "Ġ1960": 2921,
      "Ġdamaged": 2922,
      "iqu": 2923,
      "Ġtest": 2924,
      "Ġcru": 2925,
      "arily": 2926,
      "Ġpiec": 2927,
      "Ġindepend": 2928,
      "ĠScient": 2929,
      "Ġincreasing": 2930,
      "Ġturned": 2931,
      "Ġcapital": 2932,
      "Ġsocial": 2933,
      "ĠRepublic": 2934,
      "gu": 2935,
      "Ġap": 2936,
      "oration": 2937,
      "Ġcal": 2938,
      "enes": 2939,
      "Ġlines": 2940,
      "Ġgive": 2941,
      "ĠHurricane": 2942,
      "ĠPo": 2943,
      "ĠGreat": 2944,
      "Ġchap": 2945,
      "ĠThat": 2946,
      "ĠGuitar": 2947,
      "Ġstructure": 2948,
      "aled": 2949,
      "ĠMany": 2950,
      "ĠAnt": 2951,
      "Ġfeel": 2952,
      "Ġnearly": 2953,
      "Ġdeterm": 2954,
      "Ġappointed": 2955,
      "Ġdespite": 2956,
      "Ġsize": 2957,
      "Ġcycl": 2958,
      "odies": 2959,
      "ĠUnion": 2960,
      "ĠZeal": 2961,
      "Ġcomplet": 2962,
      "Ġcommunity": 2963,
      "hib": 2964,
      "Ġ?": 2965,
      "Ġbill": 2966,
      "Ġinternational": 2967,
      "Ġden": 2968,
      "Ġdate": 2969,
      "Ġliter": 2970,
      "Ġeconom": 2971,
      "ĠLa": 2972,
      "ateg": 2973,
      "rang": 2974,
      "Ġ184": 2975,
      "ĠArt": 2976,
      "Ġsurround": 2977,
      "Ġpassed": 2978,
      "Ġfut": 2979,
      "Ġmight": 2980,
      "oul": 2981,
      "ecially": 2982,
      "irt": 2983,
      "Ġwithd": 2984,
      "rian": 2985,
      "bert": 2986,
      "hedral": 2987,
      "Ġscore": 2988,
      "Ġimmedi": 2989,
      "inese": 2990,
      "Ġoccup": 2991,
      "Ġestablish": 2992,
      "Ġdebut": 2993,
      "Ġinitially": 2994,
      "osaurus": 2995,
      "Ġcertain": 2996,
      "lict": 2997,
      "Ġwinning": 2998,
      "Ġcas": 2999,
      "Ġpot": 3000,
      "Ġtow": 3001,
      "ĠMa": 3002,
      "Ġalready": 3003,
      "ĠEver": 3004,
      "Ġdeal": 3005,
      "Ġdisp": 3006,
      "Ġassist": 3007,
      "Ġgoing": 3008,
      "Ġparticip": 3009,
      "Ġarchae": 3010,
      "ĠPacific": 3011,
      "Ġfailed": 3012,
      "ication": 3013,
      "Ġstates": 3014,
      "ĠChinese": 3015,
      "ĠEarly": 3016,
      "ĠZealand": 3017,
      "fect": 3018,
      "ha": 3019,
      "ires": 3020,
      "Ġmale": 3021,
      "Ġdoc": 3022,
      "ĠDon": 3023,
      "rag": 3024,
      "ĠJin": 3025,
      "ability": 3026,
      "Ġaccording": 3027,
      "Ġrain": 3028,
      "Ġtraining": 3029,
      "Ġforest": 3030,
      "Ġlanguage": 3031,
      "Ġprobably": 3032,
      "Ġespecially": 3033,
      "den": 3034,
      "Ġfood": 3035,
      "ĠSing": 3036,
      "ĠCath": 3037,
      "ĠDr": 3038,
      "Ġkey": 3039,
      "Ġ2002": 3040,
      "ification": 3041,
      "Ġdepict": 3042,
      "Ġminor": 3043,
      "Ġissue": 3044,
      "nel": 3045,
      "Ġaut": 3046,
      "Ġdaugh": 3047,
      "ĠPri": 3048,
      "ĠFilm": 3049,
      "ĠLaw": 3050,
      "Ġstudio": 3051,
      "ĠIII": 3052,
      "ĠTom": 3053,
      "ady": 3054,
      "Ġforward": 3055,
      "ĠPeter": 3056,
      "Ġspent": 3057,
      "Ġincludes": 3058,
      "ference": 3059,
      "Ġarrived": 3060,
      "Ġordered": 3061,
      "ĠHistory": 3062,
      "ĠWheeler": 3063,
      "aut": 3064,
      "ship": 3065,
      "ises": 3066,
      "ĠAwards": 3067,
      "ĠSch": 3068,
      "ilities": 3069,
      "aval": 3070,
      "Ġarmy": 3071,
      "Ġenough": 3072,
      "Ġremaining": 3073,
      "Ġblock": 3074,
      "Ġvisit": 3075,
      "ĠCanadian": 3076,
      "ĠAngel": 3077,
      "stein": 3078,
      "ties": 3079,
      "onse": 3080,
      "Ġfail": 3081,
      "Ġdro": 3082,
      "ĠNavy": 3083,
      "Ġsometimes": 3084,
      "Ġmixed": 3085,
      "back": 3086,
      "lor": 3087,
      "zz": 3088,
      "Ġdi": 3089,
      "ĠTer": 3090,
      "ĠSoc": 3091,
      "owl": 3092,
      "ĠRose": 3093,
      "Ġcome": 3094,
      "ĠUK": 3095,
      "Ġcomplete": 3096,
      "Ġapproximately": 3097,
      "Ġreviews": 3098,
      "Ġrequired": 3099,
      "ĠAssoci": 3100,
      "orial": 3101,
      "Ġtouch": 3102,
      "ĠCreek": 3103,
      "Ġlower": 3104,
      "Ġlatter": 3105,
      "quar": 3106,
      "ranch": 3107,
      "rics": 3108,
      "Ġimm": 3109,
      "Ġcenter": 3110,
      "to": 3111,
      "ĠMer": 3112,
      "ĠMet": 3113,
      "lymp": 3114,
      "ĠPenn": 3115,
      "ĠInf": 3116,
      "Ġremain": 3117,
      "Ġbeginning": 3118,
      "ĠAfrica": 3119,
      "down": 3120,
      "inct": 3121,
      "inist": 3122,
      "stant": 3123,
      "ĠHol": 3124,
      "ĠOlymp": 3125,
      "ĠVirgin": 3126,
      "Ġsem": 3127,
      "Ġwoman": 3128,
      "etic": 3129,
      "ĠStud": 3130,
      "Ġjourn": 3131,
      "Ġdecision": 3132,
      "Ġprevent": 3133,
      "Ġlimited": 3134,
      "iest": 3135,
      "rack": 3136,
      "under": 3137,
      "Ġhapp": 3138,
      "Ġdead": 3139,
      "Ġ38": 3140,
      "Ġusually": 3141,
      "Ġbetter": 3142,
      "Ġstudents": 3143,
      "Ġadditional": 3144,
      "Ġchanges": 3145,
      "ĠRegiment": 3146,
      "edy": 3147,
      "Ġstay": 3148,
      "ĠRout": 3149,
      "ĠRachel": 3150,
      "ĠNort": 3151,
      "ĠJe": 3152,
      "aby": 3153,
      "Ġpresident": 3154,
      "Ġemb": 3155,
      "Ġrunning": 3156,
      "Ġresponse": 3157,
      "Ġsch": 3158,
      "adron": 3159,
      "Ġended": 3160,
      "Ġpositive": 3161,
      "Ġlarger": 3162,
      "ĠScott": 3163,
      "Ġconcern": 3164,
      "gar": 3165,
      "erat": 3166,
      "Ġmention": 3167,
      "ĠTV": 3168,
      "ĠAward": 3169,
      "Ġ80": 3170,
      "Ġquest": 3171,
      "Ġsupported": 3172,
      "Ġtype": 3173,
      "Ġmagazine": 3174,
      "ios": 3175,
      "uals": 3176,
      "ĠFort": 3177,
      "ĠJer": 3178,
      "Ġnotes": 3179,
      "Ġdepression": 3180,
      "Ġpolice": 3181,
      "ĠCharles": 3182,
      "Ġpressure": 3183,
      "Ġprior": 3184,
      "oor": 3185,
      "reak": 3186,
      "Ġwide": 3187,
      "Ġbirth": 3188,
      "enty": 3189,
      "Ġcompl": 3190,
      "Ġamount": 3191,
      "Ġbirds": 3192,
      "Ġshown": 3193,
      "Ġ1995": 3194,
      "Ġrelated": 3195,
      "ĠBillboard": 3196,
      "Ġface": 3197,
      "uments": 3198,
      "Ġ75": 3199,
      "Ġfeature": 3200,
      "rief": 3201,
      "Ġfifth": 3202,
      "Ġfuture": 3203,
      "rat": 3204,
      "aring": 3205,
      "ĠHot": 3206,
      "ĠUnder": 3207,
      "Ġappl": 3208,
      "Ġ1980": 3209,
      "Ġprovide": 3210,
      "Ġdefeated": 3211,
      "com": 3212,
      "Ġche": 3213,
      "ani": 3214,
      "Ġder": 3215,
      "ils": 3216,
      "ĠCamp": 3217,
      "ĠHill": 3218,
      "Ġstaff": 3219,
      "Ġanc": 3220,
      "arts": 3221,
      "Ġdiscovered": 3222,
      "bers": 3223,
      "Ġsat": 3224,
      "Ġsil": 3225,
      "Ġsection": 3226,
      "ĠSy": 3227,
      "ĠPat": 3228,
      "ĠRes": 3229,
      "ĠOper": 3230,
      "ifa": 3231,
      "Ġtemper": 3232,
      "ĠRoute": 3233,
      "hou": 3234,
      "ney": 3235,
      "Ġcm": 3236,
      "enon": 3237,
      "Ġdoll": 3238,
      "ĠBel": 3239,
      "ĠFI": 3240,
      "ĠWestern": 3241,
      "riage": 3242,
      "ishop": 3243,
      "Ġbecoming": 3244,
      "ĠFrank": 3245,
      "Ġfrequ": 3246,
      "gely": 3247,
      "oo": 3248,
      "eding": 3249,
      "Ġword": 3250,
      "rael": 3251,
      "ĠLight": 3252,
      "ĠColle": 3253,
      "ĠArab": 3254,
      "ĠRh": 3255,
      "ĠWood": 3256,
      "ands": 3257,
      "Ġvot": 3258,
      "Ġexam": 3259,
      "ector": 3260,
      "oke": 3261,
      "key": 3262,
      "oys": 3263,
      "Ġsmaller": 3264,
      "uf": 3265,
      "itte": 3266,
      "Ġflow": 3267,
      "Ġdomin": 3268,
      "ĠTur": 3269,
      "idents": 3270,
      "unt": 3271,
      "raw": 3272,
      "Ġintended": 3273,
      "Ġpercent": 3274,
      "Ġscreen": 3275,
      "Ġcolon": 3276,
      "Ġgroups": 3277,
      "Ġidea": 3278,
      "ĠScientology": 3279,
      "well": 3280,
      "inent": 3281,
      "Ġfir": 3282,
      "Ġfleet": 3283,
      "asy": 3284,
      "iforn": 3285,
      "ĠYear": 3286,
      "Ġthemsel": 3287,
      "Ġmostly": 3288,
      "Ġmetres": 3289,
      "Ġconclud": 3290,
      "Ġdiscuss": 3291,
      "ĠHaifa": 3292,
      "Ġradio": 3293,
      "Ġprofessional": 3294,
      "Ġthemselves": 3295,
      "gen": 3296,
      "ses": 3297,
      "era": 3298,
      "anies": 3299,
      "ĠRuss": 3300,
      "ples": 3301,
      "Ġ2016": 3302,
      "Ġmusical": 3303,
      "Ġsurface": 3304,
      "Ġminutes": 3305,
      "Ġcaptured": 3306,
      "Ġreferred": 3307,
      "ĠCroat": 3308,
      "Ġlikely": 3309,
      "uing": 3310,
      "anish": 3311,
      "ĠSince": 3312,
      "ĠMil": 3313,
      "imate": 3314,
      "cean": 3315,
      "ĠOver": 3316,
      "iano": 3317,
      "Ġoffice": 3318,
      "Ġlargely": 3319,
      "ĠParliament": 3320,
      "Ġproblems": 3321,
      "ĠAssociation": 3322,
      "ror": 3323,
      "Ġtry": 3324,
      "Ġlab": 3325,
      "Ġlink": 3326,
      "ĠHow": 3327,
      "rain": 3328,
      "ĠUp": 3329,
      "Ġund": 3330,
      "Ġcontem": 3331,
      "Ġindic": 3332,
      "Ġentered": 3333,
      "Ġmedia": 3334,
      "ĠPortug": 3335,
      "Ġsummer": 3336,
      "quarters": 3337,
      "iser": 3338,
      "isions": 3339,
      "Ġmakes": 3340,
      "ĠSov": 3341,
      "ĠNic": 3342,
      "ĠOtt": 3343,
      "Ġshoot": 3344,
      "ĠVer": 3345,
      "Ġens": 3346,
      "orning": 3347,
      "Ġmoving": 3348,
      "ĠIsrael": 3349,
      "ĠEarth": 3350,
      "Ġobserv": 3351,
      "Ġbroadcast": 3352,
      "Ġself": 3353,
      "Ġpair": 3354,
      "Ġcontains": 3355,
      "ĠCaliforn": 3356,
      "Ġkeep": 3357,
      "Ġconstructed": 3358,
      "sen": 3359,
      "Ġinn": 3360,
      "Ġmoney": 3361,
      "lex": 3362,
      "ĠSam": 3363,
      "ĠCouncil": 3364,
      "ĠBey": 3365,
      "Ġconcept": 3366,
      "Ġvoice": 3367,
      "ĠInter": 3368,
      "Ġsea": 3369,
      "Ġ1999": 3370,
      "Ġparen": 3371,
      "ĠSur": 3372,
      "Ġnature": 3373,
      "iva": 3374,
      "ĠHaw": 3375,
      "ĠRoss": 3376,
      "ruit": 3377,
      "Ġadop": 3378,
      "ylv": 3379,
      "Ġguitar": 3380,
      "Ġeffects": 3381,
      "Ġcele": 3382,
      "ĠGalvest": 3383,
      "ĠGalveston": 3384,
      "kan": 3385,
      "ergy": 3386,
      "Ġstories": 3387,
      "ĠChic": 3388,
      "onym": 3389,
      "Ġ1950": 3390,
      "Ġgrant": 3391,
      "Ġmajority": 3392,
      "Ġlisted": 3393,
      "Ġranked": 3394,
      "ĠJewish": 3395,
      "het": 3396,
      "Ġconsist": 3397,
      "Ġcreate": 3398,
      "hester": 3399,
      "Ġexperience": 3400,
      "Ġresearch": 3401,
      "ma": 3402,
      "Ġcle": 3403,
      "urity": 3404,
      "Ġleaving": 3405,
      "Ġuns": 3406,
      "Ġ70": 3407,
      "Ġmeth": 3408,
      "ĠBrad": 3409,
      "Ġcritical": 3410,
      "Ġfavor": 3411,
      "Ġschol": 3412,
      "Ġbrief": 3413,
      "Ġthus": 3414,
      "ĠMart": 3415,
      "owler": 3416,
      "aven": 3417,
      "Ġ33": 3418,
      "ously": 3419,
      "Ġscript": 3420,
      "Ġearth": 3421,
      "Ġcontroll": 3422,
      "Ġprimary": 3423,
      "eratops": 3424,
      "pool": 3425,
      "rison": 3426,
      "oud": 3427,
      "ĠServ": 3428,
      "Ġlived": 3429,
      "Ġalways": 3430,
      "ership": 3431,
      "Ġdeep": 3432,
      "ĠAnother": 3433,
      "Ġunderst": 3434,
      "Ġfilms": 3435,
      "Ġlocation": 3436,
      "anks": 3437,
      "Ġruns": 3438,
      "Ġofficers": 3439,
      "Ġgods": 3440,
      "Ġagreed": 3441,
      "Ġlyrics": 3442,
      "Ġri": 3443,
      "atively": 3444,
      "change": 3445,
      "teen": 3446,
      "Ġrare": 3447,
      "ospital": 3448,
      "Ġlaunched": 3449,
      "ĠCalifornia": 3450,
      "dle": 3451,
      "Ġcounter": 3452,
      "Ġded": 3453,
      "aches": 3454,
      "ĠPet": 3455,
      "illery": 3456,
      "order": 3457,
      "lands": 3458,
      "Ġattract": 3459,
      "Ġprem": 3460,
      "Ġteams": 3461,
      "Ġminute": 3462,
      "Ġculture": 3463,
      "Ġquickly": 3464,
      "ĠCatholic": 3465,
      "awn": 3466,
      "ras": 3467,
      "Ġx": 3468,
      "Ġfans": 3469,
      "ĠMr": 3470,
      "ĠIf": 3471,
      "ĠFore": 3472,
      "ĠForm": 3473,
      "Ġmeant": 3474,
      "Ġamb": 3475,
      "Ġepisodes": 3476,
      "Ġproposed": 3477,
      "Ġoccurred": 3478,
      "ĠChicago": 3479,
      "lo": 3480,
      "oir": 3481,
      "ĠSaint": 3482,
      "Ġlo": 3483,
      "imum": 3484,
      "Ġwhether": 3485,
      "Ġadapt": 3486,
      "Ġ400": 3487,
      "Ġassigned": 3488,
      "Ġaccess": 3489,
      "Ġincrease": 3490,
      "AS": 3491,
      "Ġcred": 3492,
      "Ġdram": 3493,
      "Ġhop": 3494,
      "ĠTre": 3495,
      "ĠBec": 3496,
      "ĠLatin": 3497,
      "umn": 3498,
      "Ġ32": 3499,
      "Ġpoet": 3500,
      "Ġcann": 3501,
      "Ġproduct": 3502,
      "Ġforms": 3503,
      "Ġtraffic": 3504,
      "Ġappears": 3505,
      "Ġdefeat": 3506,
      "Ġchanged": 3507,
      "Ġdestroyed": 3508,
      "iant": 3509,
      "Ġtons": 3510,
      "Ġlog": 3511,
      "ĠBen": 3512,
      "Ġasp": 3513,
      "ĠNix": 3514,
      "Ġcommission": 3515,
      "Ġtrade": 3516,
      "ĠEnter": 3517,
      "ĠArch": 3518,
      "Ġlonger": 3519,
      "ĠBattle": 3520,
      "ĠCentral": 3521,
      "Ġmeaning": 3522,
      "mas": 3523,
      "oned": 3524,
      "Ġbound": 3525,
      "anced": 3526,
      "rol": 3527,
      "Ġmom": 3528,
      "ĠSever": 3529,
      "ĠCamb": 3530,
      "ĠMey": 3531,
      "ĠHo": 3532,
      "ortun": 3533,
      "Ġran": 3534,
      "ĠAlice": 3535,
      "Ġjob": 3536,
      "Ġtheme": 3537,
      "Ġnumbers": 3538,
      "Ġprinc": 3539,
      "ĠScot": 3540,
      "Ġ1940": 3541,
      "undred": 3542,
      "Ġsoldiers": 3543,
      "Ġcompetition": 3544,
      "Ġnucle": 3545,
      "Ã³n": 3546,
      "ex": 3547,
      "Ġbomb": 3548,
      "Ġreach": 3549,
      "Ġgirl": 3550,
      "thing": 3551,
      "ĠDj": 3552,
      "Ġkil": 3553,
      "Ġleave": 3554,
      "ĠItal": 3555,
      "Ġnewsp": 3556,
      "Ġacqu": 3557,
      "Ġcarried": 3558,
      "ĠTex": 3559,
      "Ġawarded": 3560,
      "Ġfocus": 3561,
      "ĠNorthern": 3562,
      "tar": 3563,
      "Ġ300": 3564,
      "Ġ1998": 3565,
      "Ġconcert": 3566,
      "Ġconsider": 3567,
      "Ġconducted": 3568,
      "Ġprivate": 3569,
      "Ġdaughter": 3570,
      "NA": 3571,
      "ening": 3572,
      "anas": 3573,
      "rown": 3574,
      "ĠTw": 3575,
      "Ġnatural": 3576,
      "ows": 3577,
      "ĠJam": 3578,
      "Ġoverall": 3579,
      "Ġenv": 3580,
      "Ġ90": 3581,
      "Ġrecords": 3582,
      "ĠSecond": 3583,
      "Ġsubsequently": 3584,
      "cing": 3585,
      "itation": 3586,
      "Ġcause": 3587,
      "Ġtourn": 3588,
      "ĠTra": 3589,
      "Ġthick": 3590,
      "Ġemer": 3591,
      "ĠBC": 3592,
      "imin": 3593,
      "usband": 3594,
      "ĠDel": 3595,
      "ĠLiver": 3596,
      "Ġdeg": 3597,
      "Ġplans": 3598,
      "ĠVilla": 3599,
      "ĠAlkan": 3600,
      "Ġdism": 3601,
      "Ġ1930": 3602,
      "Ġanti": 3603,
      "Ġfighting": 3604,
      "bar": 3605,
      "ga": 3606,
      "lin": 3607,
      "Ġult": 3608,
      "Ġtakes": 3609,
      "Ġsus": 3610,
      "eds": 3611,
      "itor": 3612,
      "itude": 3613,
      "Ġbox": 3614,
      "Ġrein": 3615,
      "Ġlay": 3616,
      "Ġgraph": 3617,
      "Ġkind": 3618,
      "ective": 3619,
      "Ġwhole": 3620,
      "Ġ1993": 3621,
      "Ġelection": 3622,
      "ĠPolish": 3623,
      "Ġinfluence": 3624,
      "Ġcommented": 3625,
      "Ġdouble": 3626,
      "Ġindustry": 3627,
      "ken": 3628,
      "Ġ+": 3629,
      "ĠTay": 3630,
      "ĠTour": 3631,
      "ĠMinn": 3632,
      "Ġserious": 3633,
      "Ġfinally": 3634,
      "Ġbring": 3635,
      "Ġasked": 3636,
      "ĠNixon": 3637,
      "ĠLiverpool": 3638,
      "Ġtar": 3639,
      "Ġdig": 3640,
      "Ġthrow": 3641,
      "alled": 3642,
      "Ġupper": 3643,
      "Ġcompared": 3644,
      "ĠIts": 3645,
      "Ġjud": 3646,
      "Ġcentre": 3647,
      "Ġending": 3648,
      "ĠGeorg": 3649,
      "ĠSomers": 3650,
      "stitute": 3651,
      "Ġgreater": 3652,
      "Ġmethod": 3653,
      "ny": 3654,
      "Ġpurch": 3655,
      "Ġdone": 3656,
      "Ġreject": 3657,
      "ĠMal": 3658,
      "ĠBack": 3659,
      "olk": 3660,
      "ĠLady": 3661,
      "istics": 3662,
      "ells": 3663,
      "Ġunable": 3664,
      "Ġ47": 3665,
      "Ġflight": 3666,
      "ologist": 3667,
      "Ġpositions": 3668,
      "Ġaccomp": 3669,
      "itting": 3670,
      "Ġmarried": 3671,
      "ittee": 3672,
      "ĠTexas": 3673,
      "II": 3674,
      "ging": 3675,
      "Ġour": 3676,
      "Ġbig": 3677,
      "alys": 3678,
      "ĠHum": 3679,
      "ĠFoot": 3680,
      "Ġ39": 3681,
      "aily": 3682,
      "Ġbuildings": 3683,
      "Ġpersonal": 3684,
      "Ġmarket": 3685,
      "Ġstandard": 3686,
      "ĠMosley": 3687,
      "Ġrapid": 3688,
      "ĠSomerset": 3689,
      "ĠTropical": 3690,
      "ĠSol": 3691,
      "Ġgot": 3692,
      "ĠRob": 3693,
      "agon": 3694,
      "Ġyet": 3695,
      "ĠVict": 3696,
      "Ġparty": 3697,
      "Ġearned": 3698,
      "Ġbooks": 3699,
      "TV": 3700,
      "Ġmor": 3701,
      "Ġdark": 3702,
      "ĠTenn": 3703,
      "ĠCour": 3704,
      "Ġliving": 3705,
      "Ġhero": 3706,
      "ĠOut": 3707,
      "ĠThree": 3708,
      "Ġ1996": 3709,
      "Ġcollect": 3710,
      "Ġphot": 3711,
      "Ġconflict": 3712,
      "Ġbegins": 3713,
      "Ġissued": 3714,
      "ĠBusch": 3715,
      "car": 3716,
      "Ġmur": 3717,
      "Ġdom": 3718,
      "ĠSal": 3719,
      "ada": 3720,
      "ĠBob": 3721,
      "ĠFin": 3722,
      "ĠLake": 3723,
      "ria": 3724,
      "Ġdirectly": 3725,
      "Ġmarked": 3726,
      "Ġterms": 3727,
      "aught": 3728,
      "Ġtraditional": 3729,
      "house": 3730,
      "Ġsal": 3731,
      "umed": 3732,
      "Ġhealth": 3733,
      "Ġaband": 3734,
      "Ġscenes": 3735,
      "athan": 3736,
      "Ġmovement": 3737,
      "ĠSpanish": 3738,
      "ĠChristmas": 3739,
      "Ġmarriage": 3740,
      "Ġstatus": 3741,
      "ĠAfrican": 3742,
      "ĠTaylor": 3743,
      "rey": 3744,
      "Ġpath": 3745,
      "ĠFowler": 3746,
      "bery": 3747,
      "ĠCommand": 3748,
      "Ġslight": 3749,
      "Ġhelped": 3750,
      "Ġfigure": 3751,
      "ĠSeveral": 3752,
      "rical": 3753,
      "itch": 3754,
      "Ġbatter": 3755,
      "Ġpil": 3756,
      "ĠCross": 3757,
      "Ġnorm": 3758,
      "adm": 3759,
      "aded": 3760,
      "ĠDem": 3761,
      "ĠLou": 3762,
      "odon": 3763,
      "eway": 3764,
      "ĠStorm": 3765,
      "Ġsched": 3766,
      "embly": 3767,
      "Ġstarting": 3768,
      "Ġattacks": 3769,
      "Ġschools": 3770,
      "Ġexperi": 3771,
      "Ġinformation": 3772,
      "Ġsuffered": 3773,
      "Ġplanned": 3774,
      "bury": 3775,
      "anz": 3776,
      "Ġhusband": 3777,
      "Ġlif": 3778,
      "ĠIll": 3779,
      "Ġgiving": 3780,
      "ĠNor": 3781,
      "ĠJust": 3782,
      "Ġrh": 3783,
      "Ġperformances": 3784,
      "Ġassociated": 3785,
      "Ġinspired": 3786,
      "Ġsource": 3787,
      "ĠInfantry": 3788,
      "ĠSoviet": 3789,
      "ien": 3790,
      "Ġdivision": 3791,
      "cend": 3792,
      "ĠJane": 3793,
      "ify": 3794,
      "Ġplot": 3795,
      "Ġclosed": 3796,
      "ounds": 3797,
      "ibly": 3798,
      "Ġtransl": 3799,
      "ĠCont": 3800,
      "Ġpresented": 3801,
      "Ġinitial": 3802,
      "Ġcondoms": 3803,
      "ĠParty": 3804,
      "Ġmachine": 3805,
      "tation": 3806,
      "atre": 3807,
      "ican": 3808,
      "ĠTrans": 3809,
      "imb": 3810,
      "ĠGo": 3811,
      "Ġvia": 3812,
      "ĠInn": 3813,
      "Ġroom": 3814,
      "Ġimage": 3815,
      "Ġraised": 3816,
      "Ġpresence": 3817,
      "Ġpolic": 3818,
      "Ġgreatest": 3819,
      "ĠSeries": 3820,
      "Ġeducation": 3821,
      "ares": 3822,
      "like": 3823,
      "sylv": 3824,
      "uff": 3825,
      "erve": 3826,
      "Ġfell": 3827,
      "Ġinters": 3828,
      "Ġpay": 3829,
      "Ġhundred": 3830,
      "ĠTem": 3831,
      "ĠSix": 3832,
      "ĠCast": 3833,
      "olf": 3834,
      "ĠLong": 3835,
      "Ġchall": 3836,
      "ections": 3837,
      "Ġunit": 3838,
      "Ġuses": 3839,
      "Ġ42": 3840,
      "Ġwriters": 3841,
      "Ġcontinue": 3842,
      "Ġnearby": 3843,
      "ĠClub": 3844,
      "ĠParis": 3845,
      "orpor": 3846,
      "ĠCarolina": 3847,
      "Ġdocument": 3848,
      "ĠPennsylv": 3849,
      "ĠVirginia": 3850,
      "Ġsusp": 3851,
      "iated": 3852,
      "rate": 3853,
      "Ġpark": 3854,
      "ĠRam": 3855,
      "ĠLive": 3856,
      "Ġprep": 3857,
      "iami": 3858,
      "Ġcomplex": 3859,
      "Ġcovered": 3860,
      "Ã¡n": 3861,
      "Ġcollection": 3862,
      "Ġcyclone": 3863,
      "rid": 3864,
      "Ġtalk": 3865,
      "itect": 3866,
      "Ġhabit": 3867,
      "ĠMill": 3868,
      "imony": 3869,
      "Ġconver": 3870,
      "essa": 3871,
      "Ġspace": 3872,
      "Ġcomposed": 3873,
      "Ġenj": 3874,
      "Ġweap": 3875,
      "inner": 3876,
      "Ġannual": 3877,
      "Ġservices": 3878,
      "ĠAcad": 3879,
      "ĠQueen": 3880,
      "ĠCollege": 3881,
      "ĠMeyer": 3882,
      "iny": 3883,
      "Ġbodies": 3884,
      "Ġreally": 3885,
      "ether": 3886,
      "ĠWater": 3887,
      "Ġsev": 3888,
      "Ġ1997": 3889,
      "Ġnumerous": 3890,
      "Ġmetal": 3891,
      "Ġextended": 3892,
      "Ġcommander": 3893,
      "Ġcathedral": 3894,
      "Ġwaters": 3895,
      "Ġfigures": 3896,
      "Ġproducer": 3897,
      "Ġterritory": 3898,
      "oncÃ©": 3899,
      "ĠBeyoncÃ©": 3900,
      "een": 3901,
      "tain": 3902,
      "Ġhot": 3903,
      "Ġthings": 3904,
      "ĠMiami": 3905,
      "uries": 3906,
      "ĠDan": 3907,
      "ĠDam": 3908,
      "ĠLo": 3909,
      "ĠJose": 3910,
      "anta": 3911,
      "pted": 3912,
      "ports": 3913,
      "ĠGermany": 3914,
      "ĠMuseum": 3915,
      "Ġsomething": 3916,
      "Ġvocals": 3917,
      "Ġproteins": 3918,
      "Ġindividual": 3919,
      "ped": 3920,
      "zy": 3921,
      "ĠTheir": 3922,
      "ĠGames": 3923,
      "ĠNations": 3924,
      "ipal": 3925,
      "Ġ44": 3926,
      "Ġfinanc": 3927,
      "Ġartist": 3928,
      "Ġoperation": 3929,
      "ricket": 3930,
      "Ġnecess": 3931,
      "Ġinvestig": 3932,
      "ev": 3933,
      "uit": 3934,
      "Ġtax": 3935,
      "Ġsaf": 3936,
      "Ġpick": 3937,
      "Ġmorning": 3938,
      "estival": 3939,
      "ĠEr": 3940,
      "apo": 3941,
      "Ġcompanies": 3942,
      "ĠThrough": 3943,
      "Ġhighly": 3944,
      "Ġimpact": 3945,
      "Ġattacked": 3946,
      "Ġdetail": 3947,
      "Ġattempts": 3948,
      "Ġrequest": 3949,
      "ĠSomal": 3950,
      "Ġstrength": 3951,
      "ĠService": 3952,
      "ding": 3953,
      "pole": 3954,
      "vement": 3955,
      "Ġbad": 3956,
      "ĠCer": 3957,
      "ĠCrit": 3958,
      "omer": 3959,
      "ado": 3960,
      "adium": 3961,
      "ĠGar": 3962,
      "Ġrecover": 3963,
      "Ġdise": 3964,
      "ribution": 3965,
      "Ġvers": 3966,
      "Ġinteract": 3967,
      "Ġsymb": 3968,
      "Ġartillery": 3969,
      "Ġconfir": 3970,
      "Ġspeed": 3971,
      "Ġera": 3972,
      "Ġimmediately": 3973,
      "admium": 3974,
      "ĠPennsylvania": 3975,
      "track": 3976,
      "atives": 3977,
      "isation": 3978,
      "isher": 3979,
      "Ġpurs": 3980,
      "Ġpiano": 3981,
      "ĠAI": 3982,
      "ĠCons": 3983,
      "ĠMajor": 3984,
      "Ġstone": 3985,
      "ĠLi": 3986,
      "Ġplat": 3987,
      "Ġspir": 3988,
      "Ġdistance": 3989,
      "Ġallowing": 3990,
      "Ġtracks": 3991,
      "Ġpowerful": 3992,
      "Ġsituation": 3993,
      "ĠJackson": 3994,
      "Ġnuclear": 3995,
      "ĠSquadron": 3996,
      "Ġremoved": 3997,
      "Ġcelebr": 3998,
      "Ġkilomet": 3999,
      "hic": 4000,
      "onna": 4001,
      "Ġintern": 4002,
      "andid": 4003,
      "aging": 4004,
      "Ġrate": 4005,
      "Ġselected": 4006,
      "Ġsearch": 4007,
      "Ġkick": 4008,
      "iple": 4009,
      "Ġ51": 4010,
      "Ġoffered": 4011,
      "Ġsecret": 4012,
      "Ġblood": 4013,
      "Ġstudies": 4014,
      "Ġinside": 4015,
      "Ġadvance": 4016,
      "Ġvariety": 4017,
      "Ġfriends": 4018,
      "Ġneeded": 4019,
      "Ġpeaked": 4020,
      "Ġsexual": 4021,
      "Ġpurp": 4022,
      "ĠScotland": 4023,
      "ĠVictor": 4024,
      "Ġmole": 4025,
      "oura": 4026,
      "ĠSir": 4027,
      "Ġnative": 4028,
      "ĠBet": 4029,
      "ĠBoth": 4030,
      "Ġstra": 4031,
      "ĠRad": 4032,
      "ĠLos": 4033,
      "rial": 4034,
      "Ġ182": 4035,
      "izing": 4036,
      "Ġprec": 4037,
      "Ġtext": 4038,
      "Ġ1991": 4039,
      "Ġmeans": 4040,
      "Ġcoach": 4041,
      "ĠChris": 4042,
      "Ġcountries": 4043,
      "Ġheadquarters": 4044,
      "Ġattempted": 4045,
      "Ġcopies": 4046,
      "ĠFootball": 4047,
      "ãĥ": 4048,
      "ims": 4049,
      "ĠLand": 4050,
      "Ġrule": 4051,
      "ĠChina": 4052,
      "Ġscoring": 4053,
      "Ġadvant": 4054,
      "Ġhands": 4055,
      "Ġwidely": 4056,
      "Ġrespectively": 4057,
      "ĠOpen": 4058,
      "Ġresponsible": 4059,
      "Ġcasual": 4060,
      "aen": 4061,
      "hood": 4062,
      "ware": 4063,
      "alty": 4064,
      "Ġmax": 4065,
      "Ġhar": 4066,
      "ĠAlex": 4067,
      "Ġgrand": 4068,
      "Ġang": 4069,
      "send": 4070,
      "annel": 4071,
      "Ġsets": 4072,
      "Ġextrem": 4073,
      "Ġdescribes": 4074,
      "Ġappearances": 4075,
      "Ġcontrovers": 4076,
      "ĠAnderson": 4077,
      "Ġgenus": 4078,
      "Ġhigher": 4079,
      "ĠDepartment": 4080,
      "Ġtouchdown": 4081,
      "hew": 4082,
      "ĠAre": 4083,
      "iron": 4084,
      "ĠPost": 4085,
      "ĠOff": 4086,
      "aped": 4087,
      "ends": 4088,
      "Ġcanc": 4089,
      "Ġ1992": 4090,
      "Ġlands": 4091,
      "Ġconstit": 4092,
      "Ġcourse": 4093,
      "Ġmiddle": 4094,
      "Ġmagn": 4095,
      "Ġobserved": 4096,
      "ĠBraat": 4097,
      "ĠCorps": 4098,
      "Ġheavily": 4099,
      "MS": 4100,
      "me": 4101,
      "vin": 4102,
      "Ġess": 4103,
      "ĠTime": 4104,
      "ĠBre": 4105,
      "ĠNes": 4106,
      "illed": 4107,
      "Ġseem": 4108,
      "ellig": 4109,
      "Ġcompos": 4110,
      "rane": 4111,
      "Ġadult": 4112,
      "Ġdisplay": 4113,
      "Ġ1994": 4114,
      "Ġrelief": 4115,
      "ĠRev": 4116,
      "Ġbelow": 4117,
      "Ġsixth": 4118,
      "shire": 4119,
      "Ġadminist": 4120,
      "Ġreduced": 4121,
      "Ġmeeting": 4122,
      "Ġxenon": 4123,
      "Ġenjoy": 4124,
      "light": 4125,
      "esota": 4126,
      "ĠMidd": 4127,
      "ulations": 4128,
      "ĠLike": 4129,
      "umber": 4130,
      "Ġ37": 4131,
      "Ġ48": 4132,
      "Ġjump": 4133,
      "Ġ76": 4134,
      "Ġactive": 4135,
      "Ġblue": 4136,
      "Ġsinger": 4137,
      "Ġmatches": 4138,
      "Ġresulted": 4139,
      "Ġopportun": 4140,
      "Ġaudience": 4141,
      "force": 4142,
      "Ġconcluded": 4143,
      "ĠMinnesota": 4144,
      "uated": 4145,
      "Ġwing": 4146,
      "Ġcorn": 4147,
      "isk": 4148,
      "Ġpaper": 4149,
      "Ġhol": 4150,
      "Ġhour": 4151,
      "ĠCor": 4152,
      "ĠCapt": 4153,
      "ĠPit": 4154,
      "ĠEmp": 4155,
      "akapo": 4156,
      "rance": 4157,
      "Ġshell": 4158,
      "Ġinstit": 4159,
      "inkel": 4160,
      "Ġactivity": 4161,
      "Ġactivities": 4162,
      "ĠSmith": 4163,
      "Ġtrue": 4164,
      "Ġcompletely": 4165,
      "ris": 4166,
      "Ġcer": 4167,
      "isl": 4168,
      "Ġbene": 4169,
      "Ġpu": 4170,
      "room": 4171,
      "ĠSouthern": 4172,
      "ĠBol": 4173,
      "Ġstating": 4174,
      "utch": 4175,
      "ĠGreen": 4176,
      "ĠJul": 4177,
      "Ġdisapp": 4178,
      "Ġmanaged": 4179,
      "athus": 4180,
      "ĠSea": 4181,
      "ĠCenter": 4182,
      "ĠTownsend": 4183,
      "Ġrevealed": 4184,
      "ĠRosebery": 4185,
      "Ġquestion": 4186,
      "Ġcontemporary": 4187,
      "ĠHawai": 4188,
      "ĠItalian": 4189,
      "ĠMeyerbe": 4190,
      "ipped": 4191,
      "ãģ": 4192,
      "Ġwound": 4193,
      "ĠDist": 4194,
      "ĠFur": 4195,
      "ĠJim": 4196,
      "ift": 4197,
      "ĠKa": 4198,
      "Ġquality": 4199,
      "ervation": 4200,
      "Ġrefused": 4201,
      "Ġdrum": 4202,
      "Ġlevels": 4203,
      "Äģd": 4204,
      "Ġdeclared": 4205,
      "Ġtrees": 4206,
      "Ġseparate": 4207,
      "ĠNicole": 4208,
      "ĠMeyerbeer": 4209,
      "bed": 4210,
      "bird": 4211,
      "Ġpun": 4212,
      "acher": 4213,
      "ĠFinkel": 4214,
      "ecting": 4215,
      "ĠThunder": 4216,
      "rowd": 4217,
      "ĠConf": 4218,
      "Ġbrown": 4219,
      "ĠForce": 4220,
      "Ġapproach": 4221,
      "ĠWalpole": 4222,
      "Ġcontrast": 4223,
      "ĠBecause": 4224,
      "ĠFinkelstein": 4225,
      "ingu": 4226,
      "Ġtoday": 4227,
      "Ġdu": 4228,
      "ĠTessa": 4229,
      "stone": 4230,
      "ĠCat": 4231,
      "Ġlot": 4232,
      "ĠDo": 4233,
      "estic": 4234,
      "Ġuniversity": 4235,
      "peror": 4236,
      "Ġrecent": 4237,
      "ĠYue": 4238,
      "Ġwebs": 4239,
      "ĠShiva": 4240,
      "Ġbackground": 4241,
      "Ġreception": 4242,
      "Ġ150": 4243,
      "Ġfeaturing": 4244,
      "Ġrespond": 4245,
      "Ġcarry": 4246,
      "Ġmodel": 4247,
      "Ġtypically": 4248,
      "Ġhistorical": 4249,
      "Ġvocal": 4250,
      "Ġparents": 4251,
      "gal": 4252,
      "hold": 4253,
      "Ġwalk": 4254,
      "itual": 4255,
      "Ġchem": 4256,
      "Ġpow": 4257,
      "road": 4258,
      "Ġhair": 4259,
      "ĠSar": 4260,
      "Ġnation": 4261,
      "ĠPre": 4262,
      "Ġbeat": 4263,
      "ĠWild": 4264,
      "Ġ52": 4265,
      "Ġdispl": 4266,
      "Ġplays": 4267,
      "anger": 4268,
      "orship": 4269,
      "Ġactions": 4270,
      "Ġpeace": 4271,
      "Ġexpected": 4272,
      "Ġemot": 4273,
      "aha": 4274,
      "ĠBlue": 4275,
      "Ġissues": 4276,
      "ĠCharl": 4277,
      "Ġconditions": 4278,
      "Ġvehic": 4279,
      "ĠSociety": 4280,
      "ĠOttoman": 4281,
      "ĠIllino": 4282,
      "FA": 4283,
      "ka": 4284,
      "Ġinh": 4285,
      "Ġrear": 4286,
      "iled": 4287,
      "ĠBalt": 4288,
      "ĠHal": 4289,
      "ĠRo": 4290,
      "ogue": 4291,
      "Ġroy": 4292,
      "Ġbecomes": 4293,
      "Ġattention": 4294,
      "Ġweaken": 4295,
      "Ġassault": 4296,
      "Ġmainly": 4297,
      "Ġfamil": 4298,
      "Ġefforts": 4299,
      "ĠSpec": 4300,
      "arent": 4301,
      "Ġhouses": 4302,
      "eption": 4303,
      "Ġwear": 4304,
      "Ġmel": 4305,
      "Ġdraft": 4306,
      "ĠTurn": 4307,
      "ĠAv": 4308,
      "usion": 4309,
      "ĠDes": 4310,
      "ĠOm": 4311,
      "essions": 4312,
      "Ġ34": 4313,
      "Ġresidents": 4314,
      "Ġoffer": 4315,
      "ocks": 4316,
      "Ġspecim": 4317,
      "ype": 4318,
      "Ġinstr": 4319,
      "ĠAdam": 4320,
      "ĠFranc": 4321,
      "ĠHighway": 4322,
      "Ġstrugg": 4323,
      "ĠCourt": 4324,
      "ĠBraathens": 4325,
      "BA": 4326,
      "bon": 4327,
      "Ġathlet": 4328,
      "Ġsense": 4329,
      "ĠTod": 4330,
      "ĠBurn": 4331,
      "emic": 4332,
      "oses": 4333,
      "ocr": 4334,
      "Ġrecomm": 4335,
      "ĠArg": 4336,
      "Ġactually": 4337,
      "Ġcalling": 4338,
      "Ġelev": 4339,
      "Ġtitles": 4340,
      "Ġdemonst": 4341,
      "ĠHait": 4342,
      "Ġsoundtrack": 4343,
      "Ġprotein": 4344,
      "ufact": 4345,
      "onents": 4346,
      "Ġsn": 4347,
      "edo": 4348,
      "Ġcrowd": 4349,
      "enge": 4350,
      "Ġboard": 4351,
      "Ġthous": 4352,
      "Ġaltern": 4353,
      "ĠLittle": 4354,
      "Ġroles": 4355,
      "Ġpoly": 4356,
      "Ġseasons": 4357,
      "Ġwrite": 4358,
      "Ġdefend": 4359,
      "ledge": 4360,
      "ĠJohnson": 4361,
      "ĠColumb": 4362,
      "ĠDef": 4363,
      "Ġarchitect": 4364,
      "Ġaccepted": 4365,
      "Ġstruck": 4366,
      "Ġachieved": 4367,
      "ĠGovernment": 4368,
      "ĠPortugues": 4369,
      "Ġcannot": 4370,
      "cript": 4371,
      "iro": 4372,
      "ply": 4373,
      "Ġfruit": 4374,
      "anes": 4375,
      "ications": 4376,
      "Ġthr": 4377,
      "Ġnin": 4378,
      "ĠMog": 4379,
      "utions": 4380,
      "ĠFam": 4381,
      "ĠFey": 4382,
      "ĠOf": 4383,
      "pping": 4384,
      "berg": 4385,
      "ipl": 4386,
      "Ġresc": 4387,
      "Ġscient": 4388,
      "ension": 4389,
      "Ġtypes": 4390,
      "Ġpractice": 4391,
      "ĠVietnam": 4392,
      "alysis": 4393,
      "ĠPortuguese": 4394,
      "wen": 4395,
      "Ġrough": 4396,
      "Ġcam": 4397,
      "Ġfiction": 4398,
      "roll": 4399,
      "Ġdyn": 4400,
      "Ġlb": 4401,
      "ĠMat": 4402,
      "anded": 4403,
      "eller": 4404,
      "irection": 4405,
      "Ġ181": 4406,
      "Ġscul": 4407,
      "anning": 4408,
      "Ġdistinct": 4409,
      "Ġinfantry": 4410,
      "ĠSpain": 4411,
      "ĠAdd": 4412,
      "echan": 4413,
      "Ġavoid": 4414,
      "Ġprimarily": 4415,
      "ĠSecret": 4416,
      "Ġsequence": 4417,
      "ĠAcademy": 4418,
      "Ġsales": 4419,
      "ĠTint": 4420,
      "iles": 4421,
      "ĠCivil": 4422,
      "ĠBook": 4423,
      "ĠFer": 4424,
      "ĠGroup": 4425,
      "Ġplant": 4426,
      "Ġspread": 4427,
      "ĠYoung": 4428,
      "ĠEngine": 4429,
      "Ġ1986": 4430,
      "Ġowned": 4431,
      "Ġtwenty": 4432,
      "Ġelected": 4433,
      "Ġcombat": 4434,
      "Ġslightly": 4435,
      "met": 4436,
      "Ġsister": 4437,
      "ĠSarn": 4438,
      "ĠHorse": 4439,
      "use": 4440,
      "ĠWels": 4441,
      "Ġheart": 4442,
      "ĠEs": 4443,
      "Ġsuc": 4444,
      "Ġsust": 4445,
      "Ġsport": 4446,
      "ograp": 4447,
      "Ġinches": 4448,
      "Ġscale": 4449,
      "Ġoffensive": 4450,
      "ĠAnn": 4451,
      "Ġexpressed": 4452,
      "Ġconcent": 4453,
      "Ġextra": 4454,
      "Ġcounty": 4455,
      "ĠPrince": 4456,
      "Ġrights": 4457,
      "Ġnortheast": 4458,
      "Ġaffected": 4459,
      "ceeded": 4460,
      "onymous": 4461,
      "ĠLouis": 4462,
      "ĠCaptain": 4463,
      "AA": 4464,
      "right": 4465,
      "Ġsout": 4466,
      "Ġwords": 4467,
      "ora": 4468,
      "Ġfarm": 4469,
      "Ġple": 4470,
      "Ġmis": 4471,
      "ĠTri": 4472,
      "ĠChe": 4473,
      "ols": 4474,
      "ushed": 4475,
      "ĠDou": 4476,
      "Ġ180": 4477,
      "Ġneigh": 4478,
      "ĠAtt": 4479,
      "ĠReview": 4480,
      "Ġshowed": 4481,
      "Ġofficer": 4482,
      "Ġprogress": 4483,
      "ĠNesb": 4484,
      "ĠTintin": 4485,
      "ĠWelsh": 4486,
      "mond": 4487,
      "mitted": 4488,
      "orus": 4489,
      "Ġhy": 4490,
      "ĠSil": 4491,
      "ĠManc": 4492,
      "igg": 4493,
      "igan": 4494,
      "astic": 4495,
      "Ġability": 4496,
      "ĠThough": 4497,
      "Ġthemes": 4498,
      "ĠZhou": 4499,
      "ĠAdm": 4500,
      "Ġbattalion": 4501,
      "ĠAndrew": 4502,
      "Ġexcav": 4503,
      "Ġcombined": 4504,
      "ĠVaranas": 4505,
      "Ġnewspaper": 4506,
      "ĠCeres": 4507,
      "ironment": 4508,
      "ĠEmpire": 4509,
      "ĠVaranasi": 4510,
      "ãĤ": 4511,
      "rect": 4512,
      "Ġmess": 4513,
      "Ġhorse": 4514,
      "ĠFred": 4515,
      "ovic": 4516,
      "Ġqual": 4517,
      "ĠCommun": 4518,
      "Ġtitled": 4519,
      "Ġportray": 4520,
      "Ġcultural": 4521,
      "Ġsquare": 4522,
      "ĠOdaen": 4523,
      "ĠApple": 4524,
      "Ġcasualties": 4525,
      "ĠNesbitt": 4526,
      "Ġsays": 4527,
      "Ġox": 4528,
      "ĠTru": 4529,
      "Ġreign": 4530,
      "ĠWay": 4531,
      "aine": 4532,
      "Ġ49": 4533,
      "Ġremark": 4534,
      "Ġproduce": 4535,
      "Ġcontinues": 4536,
      "Ġgrass": 4537,
      "ĠEva": 4538,
      "Ġearliest": 4539,
      "Ġmountain": 4540,
      "while": 4541,
      "ĠAngeles": 4542,
      "Ġmentioned": 4543,
      "Ġancient": 4544,
      "Ġmurder": 4545,
      "Ġcerem": 4546,
      "ĠIllinois": 4547,
      "ĠOdaenathus": 4548,
      "Mont": 4549,
      "laim": 4550,
      "nown": 4551,
      "inus": 4552,
      "enant": 4553,
      "Ġfully": 4554,
      "Ġmission": 4555,
      "ented": 4556,
      "ĠCra": 4557,
      "ĠBoy": 4558,
      "etts": 4559,
      "ĠDirect": 4560,
      "ĠWash": 4561,
      "osen": 4562,
      "ĠJos": 4563,
      "oper": 4564,
      "Ġchampionship": 4565,
      "Ġmanufact": 4566,
      "Ġactor": 4567,
      "Ġprint": 4568,
      "Ġartists": 4569,
      "Ġresulting": 4570,
      "orpedo": 4571,
      "Ġ1920": 4572,
      "ĠRecords": 4573,
      "Ġauthorities": 4574,
      "Ġinfluenced": 4575,
      "ĠDuMont": 4576,
      "Ġflooding": 4577,
      "Ġnarrow": 4578,
      "ĠOlympic": 4579,
      "Ġadopted": 4580,
      "Ġdisease": 4581,
      "Ġadvantage": 4582,
      "ĠMogad": 4583,
      "ĠSarnia": 4584,
      "Ġwild": 4585,
      "ĠCap": 4586,
      "Ġnest": 4587,
      "ura": 4588,
      "Ġspl": 4589,
      "Ġ65": 4590,
      "ĠColon": 4591,
      "ĠProt": 4592,
      "Ġreports": 4593,
      "Ġlegal": 4594,
      "Ġbasis": 4595,
      "ĠPerÃ³n": 4596,
      "Ġrepresented": 4597,
      "lies": 4598,
      "lings": 4599,
      "mark": 4600,
      "Ã¨": 4601,
      "Ġsides": 4602,
      "Ġcandid": 4603,
      "Ġbott": 4604,
      "asc": 4605,
      "Ġtoward": 4606,
      "Ġmile": 4607,
      "ĠPop": 4608,
      "Ġalone": 4609,
      "ĠNC": 4610,
      "Ġcoming": 4611,
      "Ġexhib": 4612,
      "ella": 4613,
      "Ġapparent": 4614,
      "Ġagg": 4615,
      "ĠNews": 4616,
      "Ġdefense": 4617,
      "Ġbridge": 4618,
      "helm": 4619,
      "Ġbegin": 4620,
      "Ġviewers": 4621,
      "ĠWeek": 4622,
      "Ġletters": 4623,
      "Ġwithdraw": 4624,
      "Ġtower": 4625,
      "Ġtournament": 4626,
      "ĠMiddle": 4627,
      "ĠThunderbird": 4628,
      "ĠManchester": 4629,
      "bit": 4630,
      "writ": 4631,
      "Ġtorpedo": 4632,
      "Ġdirection": 4633,
      "Ġhun": 4634,
      "ĠSR": 4635,
      "ĠHome": 4636,
      "ĠHorn": 4637,
      "ĠFour": 4638,
      "ĠLar": 4639,
      "ĠOcean": 4640,
      "Ġrat": 4641,
      "Ġkakapo": 4642,
      "Ġyellow": 4643,
      "Ġarmed": 4644,
      "Ġworkers": 4645,
      "Ġrelatively": 4646,
      "Ġfounded": 4647,
      "Ġalongside": 4648,
      "Ġoccasion": 4649,
      "Ġeffort": 4650,
      "ĠClark": 4651,
      "Ġnorthwest": 4652,
      "ancy": 4653,
      "Ġillust": 4654,
      "ĠWashington": 4655,
      "aith": 4656,
      "bour": 4657,
      "lam": 4658,
      "lers": 4659,
      "Ġsac": 4660,
      "Ġcadmium": 4661,
      "ala": 4662,
      "Ġmechan": 4663,
      "Ġhors": 4664,
      "Ġlosing": 4665,
      "ĠMax": 4666,
      "ulate": 4667,
      "Ġrang": 4668,
      "iana": 4669,
      "Ġunivers": 4670,
      "ĠVan": 4671,
      "Ġcontain": 4672,
      "Ġcontact": 4673,
      "Ġadj": 4674,
      "ricult": 4675,
      "Ġattended": 4676,
      "Ġemph": 4677,
      "Ġ1988": 4678,
      "Ġofficially": 4679,
      "Ġedition": 4680,
      "Ġtried": 4681,
      "Ġorganized": 4682,
      "Ġcapture": 4683,
      "Ġindividuals": 4684,
      "Ġtransferred": 4685,
      "Ġphysical": 4686,
      "lim": 4687,
      "Ġáĥ": 4688,
      "Ġast": 4689,
      "ĠSum": 4690,
      "ental": 4691,
      "adel": 4692,
      "ĠMass": 4693,
      "ĠHu": 4694,
      "Ġproved": 4695,
      "abama": 4696,
      "gend": 4697,
      "Ġperman": 4698,
      "ĠAlabama": 4699,
      "Ġneut": 4700,
      "Ġacting": 4701,
      "prise": 4702,
      "ĠMean": 4703,
      "Ġrequire": 4704,
      "Ġwinter": 4705,
      "Ġbehav": 4706,
      "Ġpattern": 4707,
      "Ġofficials": 4708,
      "Ġmeasure": 4709,
      "Ġsurrounding": 4710,
      "Ġrainfall": 4711,
      "Ġdedicated": 4712,
      "ĠJoseph": 4713,
      "ĠOmaha": 4714,
      "ĠMogadish": 4715,
      "che": 4716,
      "can": 4717,
      "rong": 4718,
      "uous": 4719,
      "inem": 4720,
      "Ġfeder": 4721,
      "ĠSen": 4722,
      "Ġlives": 4723,
      "ĠMD": 4724,
      "ĠBu": 4725,
      "imore": 4726,
      "ĠDest": 4727,
      "ĠKent": 4728,
      "Ġenergy": 4729,
      "Ġ64": 4730,
      "ĠArm": 4731,
      "Ġdoing": 4732,
      "Ġedge": 4733,
      "ĠEdward": 4734,
      "Ġcouple": 4735,
      "ij": 4736,
      "iate": 4737,
      "onn": 4738,
      "Ġwa": 4739,
      "itness": 4740,
      "Ġfolk": 4741,
      "Ġmind": 4742,
      "ĠFant": 4743,
      "ĠGall": 4744,
      "ĠLord": 4745,
      "Ġchief": 4746,
      "Ġshape": 4747,
      "Ġ46": 4748,
      "izes": 4749,
      "ibr": 4750,
      "Ġprepar": 4751,
      "Ġfollows": 4752,
      "azz": 4753,
      "ĠIndepend": 4754,
      "Ġdesignated": 4755,
      "Ġshortly": 4756,
      "Ġpossibly": 4757,
      "ĠReception": 4758,
      "Ġsociety": 4759,
      "Ġdivided": 4760,
      "Ġfunction": 4761,
      "Ġdissip": 4762,
      "ĠHelms": 4763,
      "Ġintensity": 4764,
      "ĠInnis": 4765,
      "Ġfinancial": 4766,
      "ĠMogadishu": 4767,
      "RA": 4768,
      "kare": 4769,
      "Ġfaced": 4770,
      "Ġborder": 4771,
      "Ġpaid": 4772,
      "ĠBh": 4773,
      "ĠBowl": 4774,
      "ĠPrem": 4775,
      "ĠLis": 4776,
      "ĠJourn": 4777,
      "Ġyour": 4778,
      "Ġyoun": 4779,
      "Ġincorpor": 4780,
      "Ġimages": 4781,
      "Ġalbums": 4782,
      "Ġrepe": 4783,
      "Ġ1964": 4784,
      "Ġsimply": 4785,
      "Ġolder": 4786,
      "Ġlegisl": 4787,
      "ĠHistor": 4788,
      "Ġletter": 4789,
      "Ġsources": 4790,
      "ĠWilhelm": 4791,
      "ĠMcCall": 4792,
      "Ġeye": 4793,
      "Ġdetermined": 4794,
      "Ġjournal": 4795,
      "Ġmaximum": 4796,
      "ĠArgent": 4797,
      "VD": 4798,
      "eer": 4799,
      "ux": 4800,
      "wide": 4801,
      "Ġaid": 4802,
      "inated": 4803,
      "aling": 4804,
      "Ġmaster": 4805,
      "enture": 4806,
      "Ġthir": 4807,
      "Ġonto": 4808,
      "ĠEnd": 4809,
      "Ġcomedy": 4810,
      "ĠKore": 4811,
      "Ġplaces": 4812,
      "ipment": 4813,
      "Ġadvert": 4814,
      "ugby": 4815,
      "Ġmovie": 4816,
      "Ġbroken": 4817,
      "Ġportion": 4818,
      "ĠAssembly": 4819,
      "Ġkept": 4820,
      "Ġdoub": 4821,
      "Ġpiece": 4822,
      "Ġpotential": 4823,
      "Ġsculpt": 4824,
      "Ġemphas": 4825,
      "Station": 4826,
      "Åį": 4827,
      "Ġrom": 4828,
      "edar": 4829,
      "Ġcities": 4830,
      "Ġfrag": 4831,
      "Ġdut": 4832,
      "Ġhom": 4833,
      "ĠFleet": 4834,
      "ĠJup": 4835,
      "udd": 4836,
      "duction": 4837,
      "Ġcharge": 4838,
      "ĠCommission": 4839,
      "Ġargued": 4840,
      "Ġiron": 4841,
      "ĠPlayStation": 4842,
      "Ġdomestic": 4843,
      "Ġroyal": 4844,
      "isters": 4845,
      "lection": 4846,
      "ĠBir": 4847,
      "Ġge": 4848,
      "Ġgrew": 4849,
      "ety": 4850,
      "Ġstep": 4851,
      "ĠRih": 4852,
      "ĠFA": 4853,
      "ĠGood": 4854,
      "ĠNight": 4855,
      "agan": 4856,
      "istry": 4857,
      "ĠKn": 4858,
      "asty": 4859,
      "Ġspot": 4860,
      "Ġunk": 4861,
      "ĠVen": 4862,
      "Ġcontent": 4863,
      "Ġroll": 4864,
      "Ġ53": 4865,
      "Ġ55": 4866,
      "Ġcolor": 4867,
      "Ġdepth": 4868,
      "ĠCommon": 4869,
      "Ġsuggests": 4870,
      "Ġauthority": 4871,
      "Ġprojects": 4872,
      "Ġmanagement": 4873,
      "Ġsites": 4874,
      "ĠHamels": 4875,
      "ĠValley": 4876,
      "ĠBaltimore": 4877,
      "ĠRihanna": 4878,
      "Ġsay": 4879,
      "Ġsens": 4880,
      "Ġwor": 4881,
      "Ġwave": 4882,
      "Ġfung": 4883,
      "Ġpaint": 4884,
      "Ġhomes": 4885,
      "Ġhospital": 4886,
      "ĠSky": 4887,
      "acement": 4888,
      "lys": 4889,
      "Ġgained": 4890,
      "ĠWrit": 4891,
      "ĠGreek": 4892,
      "umes": 4893,
      "Ġshare": 4894,
      "Ġscience": 4895,
      "Ġattend": 4896,
      "Ġweak": 4897,
      "Ġprison": 4898,
      "Ġmuseum": 4899,
      "Ġentrance": 4900,
      "ertain": 4901,
      "Ġdepart": 4902,
      "Ġartic": 4903,
      "ĠConstant": 4904,
      "Ġbelong": 4905,
      "Ġphil": 4906,
      "Ġcausing": 4907,
      "Ġtwice": 4908,
      "Ġcriticized": 4909,
      "Ġstructures": 4910,
      "ĠPalest": 4911,
      "ĠDjed": 4912,
      "Ġultimately": 4913,
      "Ġtarget": 4914,
      "Ġschedul": 4915,
      "Ġwebsite": 4916,
      "rative": 4917,
      "Ġfres": 4918,
      "Ġmouth": 4919,
      "Ġhyd": 4920,
      "ĠBig": 4921,
      "ĠPen": 4922,
      "ĠDVD": 4923,
      "ĠLew": 4924,
      "Ġvess": 4925,
      "Ġdeploy": 4926,
      "ĠUl": 4927,
      "Ġcontaining": 4928,
      "Ġintellig": 4929,
      "ĠAnth": 4930,
      "Ġformation": 4931,
      "Ġinterp": 4932,
      "Ġdefence": 4933,
      "Ġresults": 4934,
      "Ġdebuted": 4935,
      "ĠForest": 4936,
      "Ġdismiss": 4937,
      "ĠJupiter": 4938,
      "ĠDjedkare": 4939,
      "gn": 4940,
      "ya": 4941,
      "yr": 4942,
      "Ġtail": 4943,
      "rel": 4944,
      "ati": 4945,
      "atur": 4946,
      "orter": 4947,
      "Ġcore": 4948,
      "Ġcricket": 4949,
      "Ġfast": 4950,
      "ĠMore": 4951,
      "ĠBur": 4952,
      "ĠHib": 4953,
      "Ġchosen": 4954,
      "Ġkg": 4955,
      "ĠUs": 4956,
      "Ġ56": 4957,
      "Ġremix": 4958,
      "Ġdefensive": 4959,
      "Ġopin": 4960,
      "Ġminer": 4961,
      "Ġ1947": 4962,
      "Ġbattles": 4963,
      "Ġforeign": 4964,
      "Ġplanet": 4965,
      "Ġcollabor": 4966,
      "ĠTorres": 4967,
      "Ġlabel": 4968,
      "more": 4969,
      "Ġfix": 4970,
      "Ġinch": 4971,
      "Ġpan": 4972,
      "ĠLock": 4973,
      "ĠJon": 4974,
      "ĠEastern": 4975,
      "ĠOx": 4976,
      "ĠChap": 4977,
      "ĠChild": 4978,
      "Ġ43": 4979,
      "Ġsecurity": 4980,
      "Ġconsecutive": 4981,
      "ĠShort": 4982,
      "Ġenter": 4983,
      "Ġ120": 4984,
      "Ġbrigade": 4985,
      "Ġprominent": 4986,
      "Ġorganization": 4987,
      "Ġstanding": 4988,
      "Ġreference": 4989,
      "Ġgrowing": 4990,
      "Ġanimal": 4991,
      "Ġburied": 4992,
      "Ġindependent": 4993,
      "Ġgranted": 4994,
      "Ġrejected": 4995,
      "Ġabandoned": 4996,
      "ML": 4997,
      "bl": 4998,
      "then": 4999,
      "Ã¼": 5000,
      "Ġsand": 5001,
      "Ġdiam": 5002,
      "ĠField": 5003,
      "ĠGre": 5004,
      "Ġven": 5005,
      "Ġseek": 5006,
      "ocated": 5007,
      "ĠOnce": 5008,
      "Ġweight": 5009,
      "Ġcolony": 5010,
      "Ġdoct": 5011,
      "Ġtherefore": 5012,
      "Ġstudent": 5013,
      "Ġ1941": 5014,
      "Ġvisited": 5015,
      "Ġclaims": 5016,
      "Ġtemple": 5017,
      "Ġorders": 5018,
      "ĠAirport": 5019,
      "Ġcondition": 5020,
      "Ġcells": 5021,
      "white": 5022,
      "ĠScottish": 5023,
      "ographer": 5024,
      "ĠApplewhite": 5025,
      "ees": 5026,
      "mon": 5027,
      "mosp": 5028,
      "Ġmic": 5029,
      "Ġdress": 5030,
      "ĠSo": 5031,
      "ĠSAF": 5032,
      "ĠCre": 5033,
      "ĠBon": 5034,
      "ĠBBC": 5035,
      "iring": 5036,
      "ĠRA": 5037,
      "ĠNorm": 5038,
      "Ġrisk": 5039,
      "Ġspect": 5040,
      "phia": 5041,
      "Ġnewly": 5042,
      "Ġregions": 5043,
      "Ġseconds": 5044,
      "Ġsingles": 5045,
      "Ġ1987": 5046,
      "airs": 5047,
      "Ġbroke": 5048,
      "Ġmoment": 5049,
      "Ġwounded": 5050,
      "adelphia": 5051,
      "ĠSAFE": 5052,
      "ao": 5053,
      "Ġtur": 5054,
      "Ġahead": 5055,
      "Ġcases": 5056,
      "Ġfear": 5057,
      "asters": 5058,
      "oured": 5059,
      "Ġreaching": 5060,
      "Ġheight": 5061,
      "resp": 5062,
      "ĠInstitute": 5063,
      "Ġseems": 5064,
      "Ġenemy": 5065,
      "ĠIndust": 5066,
      "Ġsolo": 5067,
      "ushing": 5068,
      "Ġequipment": 5069,
      "fficient": 5070,
      "Ġknowledge": 5071,
      "Ġidentified": 5072,
      "Ġnominated": 5073,
      "ĠEgyptian": 5074,
      "Ġtemperature": 5075,
      "ĠBackground": 5076,
      "Ġversions": 5077,
      "ners": 5078,
      "tav": 5079,
      "Ġtun": 5080,
      "Ġaired": 5081,
      "Ġcust": 5082,
      "Ġcouncil": 5083,
      "Ġbud": 5084,
      "Ġmales": 5085,
      "ading": 5086,
      "ĠBan": 5087,
      "ĠDue": 5088,
      "ĠJur": 5089,
      "Ġunique": 5090,
      "Ġ41": 5091,
      "Ġ1984": 5092,
      "Ġ1989": 5093,
      "Ġ1972": 5094,
      "Ġreturning": 5095,
      "Ġsupporting": 5096,
      "Ġelement": 5097,
      "ĠBefore": 5098,
      "Ġcampus": 5099,
      "Ġopposed": 5100,
      "urban": 5101,
      "Ġproblem": 5102,
      "ĠCroatia": 5103,
      "Ġenvironment": 5104,
      "ĠFurther": 5105,
      "Le": 5106,
      "cy": 5107,
      "mun": 5108,
      "Ġtim": 5109,
      "ero": 5110,
      "Ġfired": 5111,
      "Ġfox": 5112,
      "ishes": 5113,
      "ĠSub": 5114,
      "ads": 5115,
      "ĠMike": 5116,
      "ette": 5117,
      "oted": 5118,
      "Ġatmosp": 5119,
      "Ġanalysis": 5120,
      "ĠEach": 5121,
      "ĠKir": 5122,
      "Ġunp": 5123,
      "Ġ54": 5124,
      "Ġperfect": 5125,
      "Ġteacher": 5126,
      "Ġ1985": 5127,
      "Ġoperated": 5128,
      "ĠCarl": 5129,
      "ĠOrigin": 5130,
      "Ġlooking": 5131,
      "Ġincreasingly": 5132,
      "Ġliterature": 5133,
      "ĠOperation": 5134,
      "Ġscholars": 5135,
      "ĠEntertain": 5136,
      "Ġstraight": 5137,
      "Ġunknown": 5138,
      "uct": 5139,
      "Ġtheory": 5140,
      "Ġboy": 5141,
      "alle": 5142,
      "stream": 5143,
      "aming": 5144,
      "Ġec": 5145,
      "ĠMort": 5146,
      "ĠId": 5147,
      "ider": 5148,
      "ĠHMS": 5149,
      "ĠRy": 5150,
      "ĠRet": 5151,
      "Ġalter": 5152,
      "Ġhere": 5153,
      "ighth": 5154,
      "ĠKar": 5155,
      "Ġcompr": 5156,
      "Ġweather": 5157,
      "Ġwrites": 5158,
      "Ġdefin": 5159,
      "Ġacad": 5160,
      "Ġbelieve": 5161,
      "Ġbreeding": 5162,
      "Ġexplained": 5163,
      "Ġcommonly": 5164,
      "ĠBarrow": 5165,
      "Ġhistorian": 5166,
      "Ġideas": 5167,
      "Ġsettlement": 5168,
      "ĠSwed": 5169,
      "Ġburns": 5170,
      "ĠCardiff": 5171,
      "Ġconfirmed": 5172,
      "Ġmolec": 5173,
      "eg": 5174,
      "uge": 5175,
      "ych": 5176,
      "Ġod": 5177,
      "Ġoil": 5178,
      "ato": 5179,
      "ĠMic": 5180,
      "Ġstations": 5181,
      "ĠPublic": 5182,
      "ĠNever": 5183,
      "aved": 5184,
      "ĠEven": 5185,
      "Ġvo": 5186,
      "ĠKey": 5187,
      "ĠStan": 5188,
      "ĠVill": 5189,
      "Ġarrest": 5190,
      "Ġherself": 5191,
      "ĠOnly": 5192,
      "Ġconsisted": 5193,
      "Ġsinging": 5194,
      "Ġ1944": 5195,
      "Ġlandfall": 5196,
      "ĠClass": 5197,
      "Ġadvanced": 5198,
      "ĠDevelop": 5199,
      "Ġsystems": 5200,
      "Ġparliament": 5201,
      "Ġcriticism": 5202,
      "Ġfemales": 5203,
      "ĠMichigan": 5204,
      "ĠKeats": 5205,
      "Ġstrike": 5206,
      "ĠPhiladelphia": 5207,
      "Ġproperty": 5208,
      "ĠCongress": 5209,
      "Ġeconomic": 5210,
      "Ġcontrolled": 5211,
      "hu": 5212,
      "ket": 5213,
      "alions": 5214,
      "Ġpict": 5215,
      "asure": 5216,
      "ĠHart": 5217,
      "ĠRog": 5218,
      "ĠGi": 5219,
      "ĠGord": 5220,
      "ĠLl": 5221,
      "illo": 5222,
      "Ġdeities": 5223,
      "Ġimag": 5224,
      "weet": 5225,
      "awa": 5226,
      "Ġexped": 5227,
      "Ġcreation": 5228,
      "Ġleader": 5229,
      "Ġ130": 5230,
      "ĠWilliams": 5231,
      "ĠMounted": 5232,
      "Ġgrowth": 5233,
      "Ġmaintained": 5234,
      "Ġpieces": 5235,
      "Ġfailure": 5236,
      "Ġdropped": 5237,
      "Ġsemi": 5238,
      "ĠAddition": 5239,
      "ĠMeanwhile": 5240,
      "Ġawards": 5241,
      "inity": 5242,
      "inary": 5243,
      "ena": 5244,
      "Ġfict": 5245,
      "Ġmob": 5246,
      "ĠAp": 5247,
      "ĠMatt": 5248,
      "ĠBas": 5249,
      "Ġgar": 5250,
      "ĠRos": 5251,
      "ĠDen": 5252,
      "ĠDutch": 5253,
      "unic": 5254,
      "rak": 5255,
      "ĠGard": 5256,
      "ĠLu": 5257,
      "ĠLuc": 5258,
      "Ġcompar": 5259,
      "Ġarrang": 5260,
      "Ġresemb": 5261,
      "Ġ57": 5262,
      "ĠAlbum": 5263,
      "hips": 5264,
      "Ġfilmed": 5265,
      "ĠLeg": 5266,
      "fully": 5267,
      "Ġguest": 5268,
      "Ġkilling": 5269,
      "Ġfreeway": 5270,
      "Ġpitched": 5271,
      "Ġhonor": 5272,
      "Ġflying": 5273,
      "Ġinjury": 5274,
      "Ġfederal": 5275,
      "ias": 5276,
      "Ã¶": 5277,
      "Ġtact": 5278,
      "Ġtask": 5279,
      "onom": 5280,
      "Ġsen": 5281,
      "Ġbit": 5282,
      "Ġmist": 5283,
      "ĠBost": 5284,
      "ĠDer": 5285,
      "ĠDis": 5286,
      "ĠDun": 5287,
      "ĠGh": 5288,
      "ĠNathan": 5289,
      "antly": 5290,
      "ieval": 5291,
      "ĠItaly": 5292,
      "Ġserve": 5293,
      "ampion": 5294,
      "Ġ600": 5295,
      "Ġactress": 5296,
      "Ġretired": 5297,
      "ashion": 5298,
      "Ġmatter": 5299,
      "ĠGuard": 5300,
      "Ġrestaur": 5301,
      "ĠAndy": 5302,
      "Ġbelief": 5303,
      "Ġhumans": 5304,
      "ĠAbu": 5305,
      "Ġspeak": 5306,
      "ĠSteve": 5307,
      "Ġboats": 5308,
      "Ġreligion": 5309,
      "Ġpromoted": 5310,
      "Ġvalue": 5311,
      "Ġmounted": 5312,
      "ĠMinister": 5313,
      "lusion": 5314,
      "ĠJeff": 5315,
      "Ġrapidly": 5316,
      "Ġbattery": 5317,
      "Ġweapons": 5318,
      "Ġhorses": 5319,
      "cription": 5320,
      "jo": 5321,
      "kin": 5322,
      "Ġut": 5323,
      "Ġselling": 5324,
      "Ġbid": 5325,
      "Ġbank": 5326,
      "roph": 5327,
      "iced": 5328,
      "Ġham": 5329,
      "ĠAst": 5330,
      "ĠCold": 5331,
      "ĠMod": 5332,
      "uli": 5333,
      "ĠLes": 5334,
      "ersey": 5335,
      "ager": 5336,
      "alls": 5337,
      "ieut": 5338,
      "Ġagricult": 5339,
      "Ġflank": 5340,
      "Ġcolumn": 5341,
      "ĠAmericans": 5342,
      "Ġdescription": 5343,
      "Ġinvasion": 5344,
      "ĠConference": 5345,
      "Ġpasses": 5346,
      "Ġpassing": 5347,
      "Ġpublication": 5348,
      "Ġprotest": 5349,
      "Ġcougar": 5350,
      "Ġsignificantly": 5351,
      "Ġpromotion": 5352,
      "Ġconnected": 5353,
      "Ġrecognized": 5354,
      "Ġcreating": 5355,
      "Ġmultiple": 5356,
      "Ġclean": 5357,
      "Ġpremi": 5358,
      "Ġaccompan": 5359,
      "Ġprepared": 5360,
      "cop": 5361,
      "fort": 5362,
      "han": 5363,
      "haps": 5364,
      "Äĩ": 5365,
      "rete": 5366,
      "render": 5367,
      "Ġsought": 5368,
      "itable": 5369,
      "Ġbats": 5370,
      "Ġmo": 5371,
      "Ġdata": 5372,
      "ĠMur": 5373,
      "ĠMem": 5374,
      "ĠFinal": 5375,
      "ĠWat": 5376,
      "ĠWork": 5377,
      "ĠInst": 5378,
      "Ġchose": 5379,
      "ĠVideo": 5380,
      "icks": 5381,
      "amese": 5382,
      "Ġstarts": 5383,
      "Ġfamous": 5384,
      "Ġdeliver": 5385,
      "Ġpopularity": 5386,
      "Ġproducers": 5387,
      "chers": 5388,
      "Ġvolume": 5389,
      "Ġwalls": 5390,
      "ĠSlam": 5391,
      "Ġregarded": 5392,
      "Ġstrengthen": 5393,
      "Ġreaction": 5394,
      "Ġsilver": 5395,
      "Ġaspects": 5396,
      "Ġnucleus": 5397,
      "Ġseventh": 5398,
      "Ġnecessary": 5399,
      "Ġscheduled": 5400,
      "ca": 5401,
      "hi": 5402,
      "load": 5403,
      "yth": 5404,
      "Ġdrop": 5405,
      "Ġreform": 5406,
      "ĠAri": 5407,
      "ĠCole": 5408,
      "Ġlaid": 5409,
      "lying": 5410,
      "olved": 5411,
      "ote": 5412,
      "Ġbeaut": 5413,
      "ĠGulf": 5414,
      "ĠLine": 5415,
      "ĠLiber": 5416,
      "Ġvirt": 5417,
      "Ġrise": 5418,
      "Ġrival": 5419,
      "Ġsend": 5420,
      "ogen": 5421,
      "Ġnews": 5422,
      "Ġ96": 5423,
      "Ġ1981": 5424,
      "Ġlanding": 5425,
      "heless": 5426,
      "Ġstrik": 5427,
      "ĠVietnamese": 5428,
      "Ġsustained": 5429,
      "Ġphilos": 5430,
      "hm": 5431,
      "och": 5432,
      "uan": 5433,
      "Ġouter": 5434,
      "Ġfat": 5435,
      "Ġfought": 5436,
      "Ġdated": 5437,
      "ĠSund": 5438,
      "standing": 5439,
      "ĠMu": 5440,
      "ĠHaven": 5441,
      "ĠNaz": 5442,
      "ĠObs": 5443,
      "ifying": 5444,
      "Ġspring": 5445,
      "ips": 5446,
      "ocked": 5447,
      "venue": 5448,
      "ĠAdv": 5449,
      "ĠUSA": 5450,
      "Ġreflect": 5451,
      "ĠPho": 5452,
      "Ġdrive": 5453,
      "ĠAmong": 5454,
      "Ġcastle": 5455,
      "Ġcurrently": 5456,
      "Ġemployed": 5457,
      "ĠCambod": 5458,
      "Äģda": 5459,
      "Ġfamilies": 5460,
      "ĠThunderbirds": 5461,
      "Ġbudget": 5462,
      "rum": 5463,
      "yt": 5464,
      "à¸": 5465,
      "Ġtree": 5466,
      "heastern": 5467,
      "ini": 5468,
      "onent": 5469,
      "Ġsave": 5470,
      "Ġpul": 5471,
      "Ġmort": 5472,
      "ĠAthlet": 5473,
      "add": 5474,
      "ivity": 5475,
      "iments": 5476,
      "ĠDomin": 5477,
      "ĠGirl": 5478,
      "Ġrating": 5479,
      "Ġexec": 5480,
      "Ġcontained": 5481,
      "Ġarms": 5482,
      "Ġrow": 5483,
      "Ġ700": 5484,
      "Ġunderground": 5485,
      "orney": 5486,
      "Ġends": 5487,
      "ologists": 5488,
      "hess": 5489,
      "insula": 5490,
      "Ġ179": 5491,
      "Ġphase": 5492,
      "Ġ1939": 5493,
      "Ġtrial": 5494,
      "Ġfacilities": 5495,
      "Ġfrequently": 5496,
      "ĠOxford": 5497,
      "ĠEntertainment": 5498,
      "TC": 5499,
      "ii": 5500,
      "lines": 5501,
      "rig": 5502,
      "sw": 5503,
      "Ġwed": 5504,
      "rog": 5505,
      "Ġdial": 5506,
      "ĠCa": 5507,
      "Ġla": 5508,
      "ĠHan": 5509,
      "Ġbey": 5510,
      "thur": 5511,
      "ĠDar": 5512,
      "unction": 5513,
      "ĠFre": 5514,
      "ĠFriend": 5515,
      "ĠFestival": 5516,
      "ĠGreg": 5517,
      "ĠNH": 5518,
      "ĠEll": 5519,
      "Ġexecutive": 5520,
      "sea": 5521,
      "iance": 5522,
      "aph": 5523,
      "Ġunus": 5524,
      "Ġcomputer": 5525,
      "Ġcontributed": 5526,
      "Ġarc": 5527,
      "Ġprefer": 5528,
      "Ġcollected": 5529,
      "Ġactors": 5530,
      "Ġexpress": 5531,
      "Ġ1942": 5532,
      "Ġsimple": 5533,
      "Ġallows": 5534,
      "Ġnegative": 5535,
      "borough": 5536,
      "ĠStudios": 5537,
      "Ġdegree": 5538,
      "ĠRevolution": 5539,
      "Ġbottom": 5540,
      "ĠGordon": 5541,
      "iable": 5542,
      "kins": 5543,
      "ridge": 5544,
      "Ġcited": 5545,
      "Ġcraft": 5546,
      "arian": 5547,
      "Ġhor": 5548,
      "ĠSus": 5549,
      "ĠChel": 5550,
      "ayer": 5551,
      "ĠRail": 5552,
      "unte": 5553,
      "ĠNBA": 5554,
      "Ġshaped": 5555,
      "sey": 5556,
      "ĠStep": 5557,
      "Ġsports": 5558,
      "Ġoverl": 5559,
      "angers": 5560,
      "Ġ61": 5561,
      "Ġ73": 5562,
      "Ġ95": 5563,
      "Ġopera": 5564,
      "Ġ1918": 5565,
      "Ġeffective": 5566,
      "Ġentirely": 5567,
      "Ġanimals": 5568,
      "ĠCoast": 5569,
      "Ġimproved": 5570,
      "Ġsubsequent": 5571,
      "ĠBetween": 5572,
      "ĠTurner": 5573,
      "ĠCrazy": 5574,
      "ĠPremier": 5575,
      "Ġfictional": 5576,
      "ieutenant": 5577,
      "Ġbeyond": 5578,
      "ez": 5579,
      "iot": 5580,
      "mission": 5581,
      "Ã¤": 5582,
      "arp": 5583,
      "Ġmig": 5584,
      "ĠBru": 5585,
      "Ġgain": 5586,
      "Ġgives": 5587,
      "ĠRel": 5588,
      "agement": 5589,
      "Ġnotable": 5590,
      "perial": 5591,
      "Ġrecently": 5592,
      "ĠAlf": 5593,
      "Ġ62": 5594,
      "Ġ97": 5595,
      "Ġ800": 5596,
      "ĠMario": 5597,
      "Ġtrain": 5598,
      "Ġ1968": 5599,
      "Ġ1969": 5600,
      "Ġextensive": 5601,
      "ancing": 5602,
      "ĠProv": 5603,
      "Ġvisual": 5604,
      "Ġmedical": 5605,
      "Ġfinding": 5606,
      "Ġmyth": 5607,
      "Ġboat": 5608,
      "Ġencoura": 5609,
      "ĠBoise": 5610,
      "Ġgradually": 5611,
      "ĠTurk": 5612,
      "ĠMartin": 5613,
      "Ġkilometres": 5614,
      "ĠToday": 5615,
      "ĠLewis": 5616,
      "ĠBoston": 5617,
      "chen": 5618,
      "iences": 5619,
      "rine": 5620,
      "Ġsail": 5621,
      "atus": 5622,
      "isy": 5623,
      "Ġbass": 5624,
      "rot": 5625,
      "Ġdates": 5626,
      "ĠCle": 5627,
      "ĠCub": 5628,
      "Ġegg": 5629,
      "eck": 5630,
      "lywood": 5631,
      "ĠBart": 5632,
      "Ġstages": 5633,
      "ĠRod": 5634,
      "ĠFox": 5635,
      "ules": 5636,
      "ĠJain": 5637,
      "Ġchair": 5638,
      "ĠKang": 5639,
      "ĠUN": 5640,
      "ĠStone": 5641,
      "ĠHead": 5642,
      "aret": 5643,
      "Ġfinals": 5644,
      "rence": 5645,
      "Ġfloor": 5646,
      "Ġmush": 5647,
      "Ġsecondary": 5648,
      "Ġsevere": 5649,
      "Ġexpanded": 5650,
      "Ġ1975": 5651,
      "ĠBridge": 5652,
      "Ġoccas": 5653,
      "ĠJuan": 5654,
      "ycle": 5655,
      "Ġserving": 5656,
      "Ġantimony": 5657,
      "ĠBarb": 5658,
      "Ġsurvey": 5659,
      "Ġprograms": 5660,
      "Ġglob": 5661,
      "ĠCrown": 5662,
      "ĠPeople": 5663,
      "ĠSystem": 5664,
      "ĠRussian": 5665,
      "Ã¡nh": 5666,
      "ĠDaniel": 5667,
      "eed": 5668,
      "iations": 5669,
      "yson": 5670,
      "eda": 5671,
      "itan": 5672,
      "Ġbow": 5673,
      "Ġbul": 5674,
      "lee": 5675,
      "ĠAer": 5676,
      "ĠIgu": 5677,
      "Ġgreen": 5678,
      "Ġitems": 5679,
      "Ġcomes": 5680,
      "opp": 5681,
      "illing": 5682,
      "Ġchur": 5683,
      "usted": 5684,
      "Ġunf": 5685,
      "Ġcomposition": 5686,
      "Ġarran": 5687,
      "outs": 5688,
      "Ġcenturies": 5689,
      "Ġ72": 5690,
      "Ġ85": 5691,
      "ansas": 5692,
      "Ġ1965": 5693,
      "Ġ1974": 5694,
      "ographic": 5695,
      "Ġexclus": 5696,
      "Ġfinds": 5697,
      "ĠEvita": 5698,
      "Ġjoin": 5699,
      "ĠMagazine": 5700,
      "Ġoccupied": 5701,
      "ĠBelg": 5702,
      "ĠUpon": 5703,
      "set": 5704,
      "thes": 5705,
      "uate": 5706,
      "erts": 5707,
      "Ġfaith": 5708,
      "Ġdaily": 5709,
      "ompl": 5710,
      "Ġnaval": 5711,
      "ĠMen": 5712,
      "ecess": 5713,
      "ĠBand": 5714,
      "ĠGab": 5715,
      "ĠJac": 5716,
      "ĠJud": 5717,
      "izations": 5718,
      "ublin": 5719,
      "Ġdecades": 5720,
      "Ġ81": 5721,
      "Ġsole": 5722,
      "ĠIsab": 5723,
      "ĠCommander": 5724,
      "Ġdeaths": 5725,
      "Ġsuccessfully": 5726,
      "Ġlosses": 5727,
      "ĠKhÃ¡nh": 5728,
      "ĠMacLe": 5729,
      "Ġnegot": 5730,
      "Ġtreatment": 5731,
      "Ġslowly": 5732,
      "Ġindependence": 5733,
      "Ġcalc": 5734,
      "Ġcommissioned": 5735,
      "Ġexperienced": 5736,
      "win": 5737,
      "Ġaer": 5738,
      "ĠAvenue": 5739,
      "ĠCD": 5740,
      "amy": 5741,
      "Ġeth": 5742,
      "ĠRome": 5743,
      "ĠFar": 5744,
      "istan": 5745,
      "Ġ71": 5746,
      "Ġ94": 5747,
      "Ġflag": 5748,
      "Ġcool": 5749,
      "Ġ164": 5750,
      "Ġdidn": 5751,
      "ĠProject": 5752,
      "Ġtrip": 5753,
      "Ġpersonnel": 5754,
      "Ġsentence": 5755,
      "Ġengaged": 5756,
      "Ġcaptain": 5757,
      "ĠSongs": 5758,
      "ĠJamal": 5759,
      "Ġpurchased": 5760,
      "Ġpolicy": 5761,
      "ĠLiu": 5762,
      "Ġbenef": 5763,
      "aire": 5764,
      "Å¡": 5765,
      "Ġlabor": 5766,
      "Ġeas": 5767,
      "ĠMot": 5768,
      "ĠBrian": 5769,
      "Ġstreet": 5770,
      "ĠPers": 5771,
      "Ġbeach": 5772,
      "ĠRol": 5773,
      "ĠDublin": 5774,
      "ĠGA": 5775,
      "anda": 5776,
      "ava": 5777,
      "Ġchorus": 5778,
      "Ġnothing": 5779,
      "ĠChart": 5780,
      "Ġaccompl": 5781,
      "Ġcoal": 5782,
      "anny": 5783,
      "ĠSha": 5784,
      "Ġsupply": 5785,
      "ĠScience": 5786,
      "Ġ160": 5787,
      "Ġconcrete": 5788,
      "Ġ1946": 5789,
      "Ġsouthwest": 5790,
      "Ġprotagon": 5791,
      "Ġworldwide": 5792,
      "Ġbegun": 5793,
      "Ġelimin": 5794,
      "Ġpropos": 5795,
      "Ġdeclined": 5796,
      "Ġreasons": 5797,
      "ategory": 5798,
      "Ġbriefly": 5799,
      "ĠTennyson": 5800,
      "ĠTemple": 5801,
      "ĠThroughout": 5802,
      "ĠDistrict": 5803,
      "Ġfresh": 5804,
      "ĠIguan": 5805,
      "town": 5806,
      "Ġtheat": 5807,
      "aton": 5808,
      "ingly": 5809,
      "ela": 5810,
      "Ġnor": 5811,
      "ĠMov": 5812,
      "ĠBull": 5813,
      "Ġgas": 5814,
      "iration": 5815,
      "uting": 5816,
      "utation": 5817,
      "ĠDown": 5818,
      "ĠIng": 5819,
      "Ġincident": 5820,
      "ĠAlso": 5821,
      "Ġmoves": 5822,
      "ĠLeon": 5823,
      "pring": 5824,
      "Ġleaders": 5825,
      "Ġdrawn": 5826,
      "ĠTrack": 5827,
      "Ġimportance": 5828,
      "Ġroads": 5829,
      "ĠSimone": 5830,
      "Ġsumm": 5831,
      "Ġescape": 5832,
      "ĠGovernor": 5833,
      "Ġnormal": 5834,
      "Ġplatform": 5835,
      "bo": 5836,
      "born": 5837,
      "Ġ#": 5838,
      "Ġtall": 5839,
      "Ġtend": 5840,
      "erc": 5841,
      "onic": 5842,
      "Ġwitness": 5843,
      "Ġpet": 5844,
      "Ġdance": 5845,
      "Ġhired": 5846,
      "amin": 5847,
      "ĠBern": 5848,
      "ĠBaby": 5849,
      "ĠRay": 5850,
      "Ġisol": 5851,
      "ĠJes": 5852,
      "Ġrac": 5853,
      "Ġplum": 5854,
      "quake": 5855,
      "Ġspons": 5856,
      "elli": 5857,
      "rug": 5858,
      "rupt": 5859,
      "Ġdecade": 5860,
      "ooking": 5861,
      "ĠMaria": 5862,
      "Ġflu": 5863,
      "Ġfoundation": 5864,
      "Ġlongest": 5865,
      "Ġ1966": 5866,
      "Ġ1952": 5867,
      "Ġguard": 5868,
      "Ġ1936": 5869,
      "ĠProduction": 5870,
      "Ġ1919": 5871,
      "Ġpossibility": 5872,
      "ĠBrook": 5873,
      "ĠTeam": 5874,
      "Ġdelay": 5875,
      "Ġarrival": 5876,
      "Ġchapter": 5877,
      "Ġbillion": 5878,
      "Ġparticipated": 5879,
      "Ġfirm": 5880,
      "Ġunsu": 5881,
      "ĠArea": 5882,
      "Ġenjoyed": 5883,
      "Ġresponded": 5884,
      "ĠFamily": 5885,
      "Ġpaintings": 5886,
      "respond": 5887,
      "ĠDevelopment": 5888,
      "Ġsenior": 5889,
      "Ġaccompanied": 5890,
      "ĠMacLeod": 5891,
      "30": 5892,
      "BS": 5893,
      "ls": 5894,
      "rons": 5895,
      "isers": 5896,
      "ĠBoard": 5897,
      "Ġstret": 5898,
      "ĠRow": 5899,
      "ĠRox": 5900,
      "ĠDream": 5901,
      "ĠFive": 5902,
      "osa": 5903,
      "Ġheard": 5904,
      "Ġring": 5905,
      "ichol": 5906,
      "ĠUlys": 5907,
      "ĠChains": 5908,
      "ĠAli": 5909,
      "ĠAlbert": 5910,
      "Ġjack": 5911,
      "ĠMarl": 5912,
      "Ġvert": 5913,
      "Ġsubs": 5914,
      "ifications": 5915,
      "Ġsetting": 5916,
      "Ġ110": 5917,
      "Ġ177": 5918,
      "Ġdeveloping": 5919,
      "ĠDev": 5920,
      "Ġoldest": 5921,
      "Ġparalle": 5922,
      "Äģn": 5923,
      "ÃŃa": 5924,
      "Ġsquad": 5925,
      "Ġagreement": 5926,
      "Ġdollar": 5927,
      "hetic": 5928,
      "Ġroughly": 5929,
      "ĠAdmir": 5930,
      "ĠSummer": 5931,
      "ĠUlysses": 5932,
      "OC": 5933,
      "chest": 5934,
      "oe": 5935,
      "Ġi": 5936,
      "ano": 5937,
      "Ġpal": 5938,
      "Ġdog": 5939,
      "ĠTim": 5940,
      "ĠBor": 5941,
      "ĠBond": 5942,
      "imet": 5943,
      "ĠWall": 5944,
      "ĠInt": 5945,
      "Ġchoice": 5946,
      "pty": 5947,
      "essed": 5948,
      "Ġ77": 5949,
      "Ġremn": 5950,
      "Ġconsists": 5951,
      "Ġdecre": 5952,
      "Ġaccident": 5953,
      "Ġcalls": 5954,
      "Ġtransit": 5955,
      "Ġadding": 5956,
      "Ġpopulations": 5957,
      "Ġemp": 5958,
      "Ġ1973": 5959,
      "ĠConst": 5960,
      "Ġlasted": 5961,
      "espread": 5962,
      "ĠPhill": 5963,
      "Ġtowns": 5964,
      "Ġcombination": 5965,
      "Ġtechnology": 5966,
      "Ġexistence": 5967,
      "Ġregarding": 5968,
      "Ġviolence": 5969,
      "Ġdominated": 5970,
      "Ġpoetry": 5971,
      "Ġsymbol": 5972,
      "ĠFrancisc": 5973,
      "Ġathletes": 5974,
      "ĠDougl": 5975,
      "ĠAnthony": 5976,
      "ĠInstead": 5977,
      "ĠTurkish": 5978,
      "aver": 5979,
      "come": 5980,
      "rant": 5981,
      "war": 5982,
      "Ġign": 5983,
      "itors": 5984,
      "Ġfellow": 5985,
      "ĠSk": 5986,
      "ĠTheatre": 5987,
      "ĠBishop": 5988,
      "usal": 5989,
      "Ġaltar": 5990,
      "Ġcomic": 5991,
      "Ġseat": 5992,
      "Ġnote": 5993,
      "Ġcontrib": 5994,
      "Ġreserv": 5995,
      "Ġ59": 5996,
      "ressive": 5997,
      "Ġcommittee": 5998,
      "ĠAnonymous": 5999,
      "Ġundert": 6000,
      "Ġfilming": 6001,
      "Ġassass": 6002,
      "Ġsubmar": 6003,
      "Ġacres": 6004,
      "Ġdoor": 6005,
      "Ġtrav": 6006,
      "Ġperforming": 6007,
      "Ġ1967": 6008,
      "ĠConn": 6009,
      "ructure": 6010,
      "ĠCarib": 6011,
      "Ġclubs": 6012,
      "Ġcompetitions": 6013,
      "ĠBraz": 6014,
      "Ġcollege": 6015,
      "Ġassociation": 6016,
      "Ġclosely": 6017,
      "ĠOde": 6018,
      "Ġexisting": 6019,
      "Ġapplied": 6020,
      "Ġhabitat": 6021,
      "ĠRadio": 6022,
      "Ġweakened": 6023,
      "ĠHornung": 6024,
      "Ġunsuccess": 6025,
      "vens": 6026,
      "Ġtrou": 6027,
      "Ġtells": 6028,
      "Ġfashion": 6029,
      "isf": 6030,
      "Ġps": 6031,
      "ĠAston": 6032,
      "ĠAML": 6033,
      "iling": 6034,
      "ĠBi": 6035,
      "ĠLife": 6036,
      "agre": 6037,
      "agle": 6038,
      "iston": 6039,
      "ĠKenn": 6040,
      "Ġreconst": 6041,
      "Ġroof": 6042,
      "Ġperhaps": 6043,
      "Ġdescend": 6044,
      "Ġ66": 6045,
      "Ġ98": 6046,
      "Ġtruth": 6047,
      "ĠMarc": 6048,
      "Ġneither": 6049,
      "Ġsubstant": 6050,
      "Ġ175": 6051,
      "Ġdistingu": 6052,
      "Ġprovides": 6053,
      "Ġ1914": 6054,
      "Ġbattalions": 6055,
      "Ġserves": 6056,
      "Ġcapable": 6057,
      "Ġgreatly": 6058,
      "Ġappeal": 6059,
      "ĠMountain": 6060,
      "Ġcorrect": 6061,
      "Ġcorrespond": 6062,
      "Ġlearned": 6063,
      "Ġpainting": 6064,
      "Ġarchaeological": 6065,
      "Ġderived": 6066,
      "Ġreinforce": 6067,
      "Ġpilot": 6068,
      "Ġdetails": 6069,
      "Ġpurpose": 6070,
      "Ġadministration": 6071,
      "Ġopportunity": 6072,
      "Ġceremony": 6073,
      "Ġoccasionally": 6074,
      "ĠCaribbe": 6075,
      "OT": 6076,
      "burg": 6077,
      "var": 6078,
      "ona": 6079,
      "Ġsom": 6080,
      "Ġsort": 6081,
      "Ġfilled": 6082,
      "Ġbought": 6083,
      "Ġhyp": 6084,
      "entially": 6085,
      "Ġthing": 6086,
      "Ġones": 6087,
      "ĠHon": 6088,
      "ĠDota": 6089,
      "rait": 6090,
      "ĠOh": 6091,
      "Ġsufficient": 6092,
      "ĠInc": 6093,
      "ĠStew": 6094,
      "ountain": 6095,
      "Ġsupposed": 6096,
      "Ġexpans": 6097,
      "Ġreceiving": 6098,
      "Ġinvited": 6099,
      "Ġheaded": 6100,
      "Ġeditor": 6101,
      "Ġprotection": 6102,
      "Ġstoryline": 6103,
      "ĠBroad": 6104,
      "Ġbasket": 6105,
      "Ġspeaking": 6106,
      "Ġskin": 6107,
      "Ġencounter": 6108,
      "Ġhousehold": 6109,
      "Ġtechnique": 6110,
      "Ġneck": 6111,
      "Ġinnings": 6112,
      "ĠArchae": 6113,
      "Ġvehicles": 6114,
      "Ġdissipated": 6115,
      "ĠChelsea": 6116,
      "Ġchurches": 6117,
      "ĠDouglas": 6118,
      "ĠCaribbean": 6119,
      "GN": 6120,
      "RE": 6121,
      "VN": 6122,
      "la": 6123,
      "Ġaim": 6124,
      "inj": 6125,
      "oral": 6126,
      "Ġcit": 6127,
      "Ġcra": 6128,
      "Ġcrop": 6129,
      "Ġdrew": 6130,
      "Ġhat": 6131,
      "Ġeu": 6132,
      "ĠMel": 6133,
      "uri": 6134,
      "ĠDet": 6135,
      "ĠLow": 6136,
      "ĠLieutenant": 6137,
      "ĠJay": 6138,
      "agn": 6139,
      "ĠERA": 6140,
      "Ġseg": 6141,
      "abil": 6142,
      "pton": 6143,
      "ĠVol": 6144,
      "Ġevac": 6145,
      "ropri": 6146,
      "ĠAsia": 6147,
      "Ġacid": 6148,
      "Ġgoes": 6149,
      "Ġreceive": 6150,
      "Ġ1945": 6151,
      "Ġ1971": 6152,
      "ĠWhat": 6153,
      "Ġanything": 6154,
      "Ġclassified": 6155,
      "Ġtypical": 6156,
      "Ġviewed": 6157,
      "ĠAbout": 6158,
      "ĠPerry": 6159,
      "Ġsurvived": 6160,
      "Ġislands": 6161,
      "iece": 6162,
      "Ġwidespread": 6163,
      "idden": 6164,
      "Ġmassive": 6165,
      "Ġmotion": 6166,
      "ĠCardinal": 6167,
      "Ġstopped": 6168,
      "ĠMaeda": 6169,
      "Ġdrama": 6170,
      "ĠGeorgian": 6171,
      "Ġsoutheast": 6172,
      "ĠFreder": 6173,
      "Ġastron": 6174,
      "ĠConstantine": 6175,
      "ĠHibari": 6176,
      "lik": 6177,
      "rist": 6178,
      "ruli": 6179,
      "tty": 6180,
      "ÅĤ": 6181,
      "Ġopt": 6182,
      "Ġfuel": 6183,
      "ĠAge": 6184,
      "ilton": 6185,
      "Ġload": 6186,
      "acity": 6187,
      "ĠMTV": 6188,
      "ola": 6189,
      "ĠHin": 6190,
      "ĠHard": 6191,
      "ĠRun": 6192,
      "ĠRio": 6193,
      "ĠRÃ©": 6194,
      "Ġwhy": 6195,
      "ĠWind": 6196,
      "opes": 6197,
      "ighter": 6198,
      "Ġcho": 6199,
      "ĠKil": 6200,
      "Ġshared": 6201,
      "apes": 6202,
      "iege": 6203,
      "Ġrob": 6204,
      "ĠYe": 6205,
      "iously": 6206,
      "Ġflights": 6207,
      "Ġsubt": 6208,
      "Ġsoft": 6209,
      "anned": 6210,
      "Ġ1982": 6211,
      "Ġ176": 6212,
      "Ġdistrict": 6213,
      "ĠQedar": 6214,
      "Ġ250": 6215,
      "ĠPrinc": 6216,
      "Ġauthors": 6217,
      "Ġiniti": 6218,
      "ĠRomani": 6219,
      "ĠSimon": 6220,
      "Ġsettlers": 6221,
      "Ġmissing": 6222,
      "glades": 6223,
      "ĠGolden": 6224,
      "Ġtrying": 6225,
      "Ġacquired": 6226,
      "Ġdigital": 6227,
      "Ġconverted": 6228,
      "Ġsafety": 6229,
      "ĠFantasy": 6230,
      "ibrary": 6231,
      "Ġrepeated": 6232,
      "cer": 6233,
      "vis": 6234,
      "Ġice": 6235,
      "inosaur": 6236,
      "Ġcab": 6237,
      "Ġdub": 6238,
      "stances": 6239,
      "Ġlin": 6240,
      "idges": 6241,
      "ivered": 6242,
      "ĠPatt": 6243,
      "ĠGil": 6244,
      "ĠGang": 6245,
      "ĠGram": 6246,
      "ĠJones": 6247,
      "rier": 6248,
      "iful": 6249,
      "Ġrich": 6250,
      "Ġchannel": 6251,
      "Ġexact": 6252,
      "ĠStadium": 6253,
      "Ġspacing": 6254,
      "Ġlegend": 6255,
      "Ġroutes": 6256,
      "mann": 6257,
      "Ġfinish": 6258,
      "ilding": 6259,
      "issance": 6260,
      "Ġlocations": 6261,
      "Ġ1976": 6262,
      "Ġ1956": 6263,
      "Ġ1913": 6264,
      "Ġ1916": 6265,
      "Ġexperiment": 6266,
      "reme": 6267,
      "Ġglass": 6268,
      "Ġwatched": 6269,
      "Ġholding": 6270,
      "Ġbaseball": 6271,
      "Ġrebu": 6272,
      "Ġfunding": 6273,
      "ĠMoz": 6274,
      "Ġfocused": 6275,
      "Ġplanning": 6276,
      "ĠOslo": 6277,
      "Ġdepicted": 6278,
      "ĠSurv": 6279,
      "ĠHoly": 6280,
      "Ġinstrument": 6281,
      "ĠHaiti": 6282,
      "Ġsucceeded": 6283,
      "Ġpermanent": 6284,
      "ĠVenus": 6285,
      "Ġopinion": 6286,
      "ĠShortly": 6287,
      "Ġatmosphere": 6288,
      "ĠPhoen": 6289,
      "Ġwedding": 6290,
      "Ġarranged": 6291,
      "ĠIguanodon": 6292,
      "ĠBrazil": 6293,
      "Ġurban": 6294,
      "Ġtable": 6295,
      "Ġwick": 6296,
      "Ġbowl": 6297,
      "anth": 6298,
      "Ġpack": 6299,
      "Ġmut": 6300,
      "ĠMah": 6301,
      "ĠFel": 6302,
      "ĠFire": 6303,
      "ĠGra": 6304,
      "ĠLenn": 6305,
      "Ġchance": 6306,
      "ĠKat": 6307,
      "apers": 6308,
      "Ġresident": 6309,
      "Ġrose": 6310,
      "Ġoverse": 6311,
      "Ġknew": 6312,
      "Ġdecline": 6313,
      "ĠArts": 6314,
      "oba": 6315,
      "Ġcharter": 6316,
      "Ġassemb": 6317,
      "Ġdefined": 6318,
      "Ġ112": 6319,
      "Ġ1943": 6320,
      "Ġrevolution": 6321,
      "Ġproviding": 6322,
      "ĠAllied": 6323,
      "Ġprotect": 6324,
      "Ġreality": 6325,
      "ĠSimilar": 6326,
      "Ġcreator": 6327,
      "Ġpenalty": 6328,
      "Ġearthquake": 6329,
      "Ġrif": 6330,
      "Ġcredited": 6331,
      "ĠSecretary": 6332,
      "LI": 6333,
      "pass": 6334,
      "Ġtied": 6335,
      "Ġsun": 6336,
      "Ġwins": 6337,
      "Ġdating": 6338,
      "ĠSnow": 6339,
      "uration": 6340,
      "ĠBul": 6341,
      "ĠIGN": 6342,
      "ĠHell": 6343,
      "ĠHomer": 6344,
      "ĠRangers": 6345,
      "ĠGully": 6346,
      "Ġrub": 6347,
      "ĠChronic": 6348,
      "Ġpregn": 6349,
      "formation": 6350,
      "Ġ87": 6351,
      "Ġsupplies": 6352,
      "Ġ1963": 6353,
      "Ġdownload": 6354,
      "Ã©t": 6355,
      "Ġairport": 6356,
      "Ġmoder": 6357,
      "Ġheads": 6358,
      "Ġways": 6359,
      "Ġexplos": 6360,
      "ĠAbb": 6361,
      "Ġdelivered": 6362,
      "ĠStevens": 6363,
      "Ġlaws": 6364,
      "Ġtechnical": 6365,
      "ĠMorrison": 6366,
      "Ġseparated": 6367,
      "Ġrenamed": 6368,
      "ĠEverglades": 6369,
      "evo": 6370,
      "Ġthousands": 6371,
      "ĠAdditionally": 6372,
      "ĠHindu": 6373,
      "SB": 6374,
      "crib": 6375,
      "gÃ©": 6376,
      "hat": 6377,
      "min": 6378,
      "Ġsan": 6379,
      "Ġfair": 6380,
      "Ġdry": 6381,
      "ĠTop": 6382,
      "ĠSound": 6383,
      "ador": 6384,
      "Ġgal": 6385,
      "Ġrural": 6386,
      "Ġselect": 6387,
      "essing": 6388,
      "ears": 6389,
      "ĠUTC": 6390,
      "ube": 6391,
      "okes": 6392,
      "Ġenl": 6393,
      "Ġteaching": 6394,
      "issipp": 6395,
      "Ġsecure": 6396,
      "attle": 6397,
      "ĠArthur": 6398,
      "Ġcolour": 6399
    },
    "merges": [
      "Ġ t",
      "h e",
      "Ġ a",
      "i n",
      "Ġt he",
      "e r",
      "o n",
      "Ġ ,",
      "r e",
      "Ġ s",
      "e d",
      "Ġ o",
      "Ġ w",
      "n d",
      "a t",
      "Ġ .",
      "o r",
      "i t",
      "Ġ c",
      "e n",
      "Ġ f",
      "i s",
      "e s",
      "a r",
      "Ġo f",
      "Ġ b",
      "a n",
      "Ġ in",
      "a l",
      "in g",
      "Ġ p",
      "Ġa nd",
      "a s",
      "Ġt o",
      "r o",
      "i c",
      "Ġ m",
      "Ġ d",
      "Ġ h",
      "i on",
      "l e",
      "o u",
      "Ġ T",
      "Ġ re",
      "Ġ =",
      "Ġ \"",
      "Ġ A",
      "Ġ S",
      "en t",
      "i l",
      "Ġt h",
      "Ġ 1",
      "s t",
      "Ġ C",
      "e l",
      "o m",
      "Ġ l",
      "a m",
      "Ġ Ċ",
      "Ġ e",
      "Ġ n",
      "Ġ @",
      "a d",
      "a c",
      "Ġw as",
      "Ġ M",
      "u r",
      "ĠT he",
      "e c",
      "Ġ on",
      "l y",
      "Ġ B",
      "Ġ I",
      "Ġ g",
      "Ġ '",
      "e t",
      "o l",
      "i d",
      "i v",
      "i m",
      "Ġf or",
      "i r",
      "- @",
      "Ġ@ -@",
      "i g",
      "o t",
      "t er",
      "Ġa s",
      "Ġ H",
      "u s",
      "o w",
      "Ġs t",
      "u t",
      "it h",
      "a y",
      "Ġ 2",
      "Ġ P",
      "at ion",
      "v er",
      "Ġb e",
      "he r",
      "Ġth at",
      "Ġw ith",
      "Ġ R",
      "c e",
      "t h",
      "Ġ D",
      "Ġ is",
      "u n",
      "e m",
      "Ġ F",
      "Ġw h",
      "u l",
      "Ġb y",
      "Ġa l",
      "c h",
      "Ġ )",
      "Ġ (",
      "Ġ W",
      "Ġc on",
      "r a",
      "Ġ G",
      "o s",
      "Ġ L",
      "Ġ N",
      "Ġa t",
      "er s",
      "c t",
      "Ġ it",
      "Ġ1 9",
      "ro m",
      "a nd",
      "Ġa n",
      "u m",
      "es t",
      "Ġ J",
      "a g",
      "Ġ he",
      "0 0",
      "is t",
      "a in",
      "o d",
      "a v",
      "r i",
      "Ġ E",
      "Ġ O",
      "Ġf rom",
      "Ġc om",
      "Ġh is",
      "o p",
      "Ġp ro",
      "re s",
      "i es",
      "i f",
      "Ġ v",
      "or t",
      "er e",
      "il l",
      "l d",
      "Ġd e",
      "p p",
      "Ġs u",
      "o re",
      "ĠI n",
      "Ġ r",
      "Ġs e",
      "Ġw ere",
      "e w",
      "on g",
      "ig h",
      "ar d",
      "at e",
      "al l",
      "ar t",
      "a k",
      "ic h",
      "Ġc h",
      "Ġo r",
      "a b",
      "an t",
      "u d",
      "o c",
      "b er",
      "Ġe x",
      "g h",
      "it y",
      "at ed",
      "p t",
      "es s",
      "e ar",
      "Ġ K",
      "Ġp l",
      "am e",
      "q u",
      "iv e",
      "ro u",
      "Ġa re",
      "Ġ â",
      "Ġs h",
      "Ġ k",
      "ac k",
      "ec t",
      "Ġâ Ģ",
      "Ġ U",
      "Ġh ad",
      "s e",
      "Ġwh ich",
      "re d",
      "o v",
      "ĠS t",
      "as t",
      "Ġs p",
      "i an",
      "Ġ y",
      "m ent",
      "Ġ le",
      "Ġn ot",
      "g e",
      "or d",
      "r it",
      "i p",
      "in e",
      "el l",
      "al ly",
      "ou r",
      "o st",
      "igh t",
      "t her",
      "a p",
      "Ġ u",
      "is h",
      "ĠC h",
      "ou n",
      "i a",
      "Ġ 3",
      "av e",
      "ar y",
      "u st",
      "o g",
      "Ġ2 00",
      "Ġ un",
      "ou s",
      "ir st",
      "Ġ V",
      "c c",
      "Ġin c",
      "Ġ ;",
      "Ġcom p",
      "r u",
      "ion s",
      "Ġthe ir",
      "Ġb ut",
      "id e",
      "u re",
      "s o",
      "Ġcon t",
      "Ġin t",
      "f ter",
      "ic al",
      "i al",
      "Ġa r",
      "Ġf irst",
      "ou ld",
      "Ġit s",
      "he d",
      "ĠâĢ ĵ",
      "Ġw he",
      "w o",
      "ou t",
      "u b",
      "Ġ2 0",
      "f f",
      "Ġ :",
      "u e",
      "Ġ her",
      "ow n",
      "o k",
      "Ġal so",
      "Ġc l",
      "p er",
      "ig n",
      "at er",
      "r an",
      "or m",
      "i e",
      "om e",
      "or k",
      "as s",
      "i re",
      "e nd",
      "Ġre s",
      "Ġa b",
      "Ġa d",
      "Ġ us",
      "r y",
      "Ġre c",
      "Ġh ave",
      "ag e",
      "ĠH e",
      "Ġ 4",
      "Ġ ro",
      "m er",
      "Ġon e",
      "on d",
      "l ow",
      "Ġh as",
      "ĠT h",
      "d u",
      "Ġ 5",
      "Ġp er",
      "Ġbe en",
      "im e",
      "Ġt wo",
      "en ce",
      "l and",
      "Ġ1 8",
      ". @",
      "Ġ@ .@",
      "ul t",
      "re e",
      "ou gh",
      "i le",
      "Ġwh o",
      "ĠA l",
      "Ġs c",
      "ur ing",
      "p l",
      "or y",
      "it ion",
      "r ic",
      "ation s",
      "Ġd is",
      "Ġth is",
      "Ġb ec",
      "Ġa pp",
      "i z",
      "ĠI t",
      "a re",
      "ac h",
      "l ud",
      "ad e",
      "Ġpl ay",
      "Ġ j",
      "Ġm an",
      "ac t",
      "el y",
      "Ġp art",
      "Ġd es",
      "Ġa g",
      "Ġthe y",
      "Ġy ear",
      "oun t",
      "Ġ20 1",
      "Ġo ver",
      "Ġo ther",
      "ou nd",
      "Ġa fter",
      "i b",
      "o ver",
      "Ġs er",
      "Ġ en",
      "Ġof f",
      "Ġ im",
      "ct ion",
      "Ġ Y",
      "k e",
      "it e",
      ", @",
      "Ġ@ ,@",
      "t e",
      "ur n",
      "Ġinc lud",
      "res s",
      "an ce",
      "an g",
      "Ġat t",
      "ic e",
      "ac e",
      "ar k",
      "Ġo ut",
      "w n",
      "p h",
      "em ber",
      "Ġp re",
      "Ġu p",
      "en s",
      "m an",
      "Ġe v",
      "Ġt ime",
      "nd er",
      "rou gh",
      "c ed",
      "Ġf in",
      "Ġint o",
      "on e",
      "p ort",
      "rou nd",
      "w e",
      "re n",
      "l es",
      "in t",
      "ĠO n",
      "v el",
      "Ġcom m",
      "Ġs he",
      "as on",
      "am p",
      "Ġt e",
      "Ġw ould",
      "w ard",
      "Ġm ore",
      "Ġ 6",
      "i ed",
      "os e",
      "ri b",
      "ĠU n",
      "Ġal l",
      "ing s",
      "ter n",
      "c es",
      "ab le",
      "Ġw e",
      "it ed",
      "e ver",
      "ent s",
      "Ġh im",
      "as ed",
      "or s",
      "o y",
      "o od",
      "Ġc ent",
      "i x",
      "as e",
      "il d",
      "ĠA n",
      "Ġ 7",
      "Ġw ork",
      "at es",
      "i ous",
      "at h",
      "Ġp o",
      "ro p",
      "ol d",
      "al s",
      "is s",
      "e y",
      "ic t",
      "Ġf e",
      "Ġthe m",
      "g an",
      "Ġs ec",
      "Ġb et",
      "Ġwhe n",
      "Ġs ong",
      "Ġre m",
      "e p",
      "f orm",
      "a il",
      "f er",
      "Ġe ar",
      "ub l",
      "a w",
      "Ġk n",
      "ak e",
      "a us",
      "Ġm ost",
      "Ġcon s",
      "Ġd uring",
      "ĠA s",
      "or th",
      "Ġn ew",
      "er ed",
      "il m",
      "v ed",
      "at t",
      "Ġon ly",
      "Ġ 9",
      "Ġd ec",
      "Ġ 8",
      "ic k",
      "Ġg ame",
      "on s",
      "u g",
      "Ġt r",
      "f t",
      "ot h",
      "o ok",
      "ĠM ar",
      "re at",
      "w ay",
      "Ġc an",
      "ol low",
      "ou th",
      "we en",
      "ĠE n",
      "Ġ19 9",
      "ter s",
      "Ġre l",
      "in d",
      "Ġab out",
      "Ġse ason",
      "Ġag ain",
      "r al",
      "Ġth ree",
      "ation al",
      "Ġu nder",
      "ul ar",
      "Ġm e",
      "Ġth an",
      "ĠC om",
      "ĠA r",
      "h ip",
      "o b",
      "Ġn e",
      "Ġbet ween",
      "Ġf l",
      "h n",
      "v e",
      "Ġch ar",
      "Ġc ol",
      "Ġrec ord",
      "i ew",
      "r on",
      "f ore",
      "Ġth rough",
      "is ion",
      "or n",
      "Ġ 00",
      "oc k",
      "Ġ ver",
      "Ġl ater",
      "Ġn um",
      "Ġe nd",
      "ol og",
      "am es",
      "Ġp os",
      "Ġw rit",
      "Ġpro du",
      "Ġwh ile",
      "Ġa ct",
      "Ġre le",
      "Ġf ilm",
      "is hed",
      "Ġp r",
      "an s",
      "Ġre g",
      "Ġfor m",
      "Ġas s",
      "ĠS e",
      "ur y",
      "t ed",
      "t s",
      "Ġm ade",
      "Ġsu b",
      "Ġp e",
      "Ġs o",
      "or ld",
      "Ġre t",
      "ĠN ew",
      "Ġsp ec",
      "Ġa cc",
      "Ġ qu",
      "Ġwhe re",
      "en er",
      "Ġm ov",
      "he s",
      "mer ic",
      "at ing",
      "Ġin ter",
      "ĠL e",
      "ĠA meric",
      "Ġ ra",
      "Ġs ome",
      "Ġc o",
      "Ġl ar",
      "Ġb u",
      "Ġde f",
      "b um",
      "Ġa c",
      "Ġm us",
      "Ġf ollow",
      "ĠA t",
      "in s",
      "iv ed",
      "if ic",
      "u al",
      "Ġa m",
      "Ġsu ch",
      "Ġsec ond",
      "i ke",
      "Ġf our",
      "Ġin d",
      "an n",
      "he n",
      "Ġus ed",
      "ĠR e",
      "ic s",
      "le ct",
      "Ġd ay",
      "i el",
      "il y",
      "ĠTh is",
      "Ġ 0",
      "Ġp ubl",
      "Ġc all",
      "ĠJ o",
      "l l",
      "Ġal bum",
      "Ġ00 0",
      "ran s",
      "Ġd o",
      "an y",
      "Ġbe fore",
      "ro s",
      "ĠS h",
      "Ġs y",
      "a id",
      "ĠEn g",
      "Ġbe ing",
      "Ġ1 0",
      "u c",
      "Ġe p",
      "Ġsu pp",
      "Ġthe re",
      "Ġyear s",
      "ar s",
      "ow ever",
      "Ġ ent",
      "if e",
      "Ġh igh",
      "Ġf ound",
      "ir d",
      "Ġn o",
      "Ġs et",
      "in es",
      "iv er",
      "i o",
      "ot her",
      "j ect",
      "Ġs ur",
      "a j",
      "t en",
      "Ġt ra",
      "Ġ1 2",
      "is ed",
      "it ies",
      "vel op",
      "Ġb l",
      "al e",
      "Ġser ies",
      "Ġl oc",
      "Ġnum ber",
      "Ġp res",
      "an e",
      "aus e",
      "od e",
      "e k",
      "t on",
      "ĠS c",
      "i er",
      "is e",
      "Ġse ver",
      "in ce",
      "Ġb oth",
      "an k",
      "ro w",
      "ire ct",
      "s on",
      "Ġthe n",
      "ĠB rit",
      "i et",
      "Ġ1 6",
      "Ġep is",
      "Ġinclud ing",
      "it s",
      "ig in",
      "p r",
      "Ġ /",
      "Ġagain st",
      "Ġw ell",
      "Ġbec ame",
      "Ġex p",
      "Ġkn own",
      "Ġt rans",
      "Ġchar ac",
      "ĠâĢ Ķ",
      "r am",
      "Ġb ack",
      "Ġad d",
      "Ġp op",
      "Ġg o",
      "ur ch",
      "Ġdes c",
      "Ġs ing",
      "iel d",
      "Ġper form",
      "ain ed",
      "Ġre ce",
      "id ent",
      "Ġe m",
      "er t",
      "u res",
      "Ġin v",
      "Ġde p",
      "Ġ19 8",
      "a ir",
      "er n",
      "at her",
      "f ul",
      "Ġ Z",
      "Ġm on",
      "Ġman y",
      "Ġm ain",
      "Ġst ud",
      "Ġl ong",
      "in n",
      "th ough",
      "u p",
      "o ol",
      "ĠUn ited",
      "l ed",
      "em ent",
      "Ġ1 5",
      "ow er",
      "ĠJo hn",
      "Ġo p",
      "Ġ1 1",
      "in ed",
      "Ġm et",
      "o ber",
      "le y",
      "Ġ1 7",
      "Ġcent ury",
      "Ġte am",
      "Ġ est",
      "ĠA fter",
      "y l",
      "Ġm in",
      "u ch",
      "ut e",
      "Ġde velop",
      "ĠS he",
      "i am",
      "Ġsh ow",
      "el f",
      "Ġre p",
      "Ġcon c",
      "at ive",
      "Ġc re",
      "over n",
      "a red",
      "Ġ19 4",
      "Ġor igin",
      "Ġs m",
      "iv ers",
      "a z",
      "Ġle ad",
      "Ġsever al",
      "a h",
      "Ġo b",
      "Ġre v",
      "Ġm ill",
      "er m",
      "u ally",
      "o ot",
      "Ġbe gan",
      "Ġ19 6",
      "i red",
      "Ġd if",
      "Ġcont in",
      "Ġs ign",
      "i k",
      "ĠI nd",
      "ment s",
      "iz ed",
      "Ġ19 7",
      "Ġd irect",
      "a u",
      "Ġex t",
      "ros s",
      "em b",
      "d er",
      "Ġp ol",
      "Ġm ay",
      "a pt",
      "el s",
      "ĠW h",
      "Ġcomp le",
      "Ġar t",
      "ĠB r",
      "ĠI s",
      "un e",
      "t il",
      "Ġc rit",
      "Ġh ist",
      "Ġear ly",
      "Ġc ould",
      "ĠC on",
      "Ġd id",
      "Ġb el",
      "Ġcall ed",
      "u ed",
      "Ġn ear",
      "Ġepis ode",
      "y p",
      "Ġdesc rib",
      "im es",
      "Ġb ro",
      "rou p",
      "op le",
      "Ġd own",
      "Ġr un",
      "ak ing",
      "Ġdis c",
      "Ġal ong",
      "cc ess",
      "ĠM ay",
      "Ġfe at",
      "Ġin st",
      "ĠAmeric an",
      "Ġs aid",
      "Ġd ist",
      "Ġin f",
      "Ġim p",
      "in k",
      "Ġin s",
      "t y",
      "Ġthe se",
      "Ġm il",
      "v en",
      "ĠG er",
      "g est",
      "i um",
      "en n",
      "ĠB l",
      "ĠA ust",
      "Ġres p",
      "ul l",
      "ru ct",
      "u red",
      "Ġth ough",
      "Ġsh ip",
      "ov e",
      "Ġo per",
      "ĠBrit ish",
      "Ã ©",
      "Ġun til",
      "Ġpre v",
      "it t",
      "am ed",
      "Ġc ar",
      "ce pt",
      "Ġst art",
      "Ġc ity",
      "Ġg ener",
      "Ġs ame",
      "ain s",
      "ĠW ar",
      "ist s",
      "i ally",
      "id ed",
      "Ġrele ased",
      "Ġl and",
      "is m",
      "ĠC ar",
      "Ġo wn",
      "Ġw ar",
      "Ġan y",
      "Ġpro v",
      "Ġret urn",
      "Ġa ir",
      "ĠThe y",
      "x t",
      "ers on",
      "om an",
      "Ġmus ic",
      "Ġk m",
      "Ġdes ign",
      "aj or",
      "ĠP l",
      "ib le",
      "os ed",
      "Ġs im",
      "Ġcon st",
      "Ġapp ear",
      "Ġmill ion",
      "Ġbec ause",
      "Ġf am",
      "as h",
      "Ġm at",
      "Ġare a",
      "Ġus e",
      "Ġ1 3",
      "ĠA ug",
      "ĠCh r",
      "ĠAug ust",
      "Ġo cc",
      "Ġp h",
      "Ġop en",
      "Ġl ike",
      "on y",
      "Ġsu ccess",
      "o le",
      "ou se",
      "er v",
      "Ġc ount",
      "Ġp ass",
      "os s",
      "Ġe ff",
      "Ġpe ople",
      "m y",
      "ch ool",
      "u nd",
      "ĠS p",
      "st em",
      "ĠC l",
      "Ġoff ic",
      "et s",
      "Ġs ix",
      "ut h",
      "an ge",
      "u es",
      "Ġ19 5",
      "Ġsupp ort",
      "Ġa round",
      "Ġsm all",
      "ĠC ol",
      "ĠH owever",
      "ĠSe pt",
      "Ġd am",
      "Ġ %",
      "Ġad v",
      "Ġm od",
      "Ġe le",
      "Ġn orth",
      "ĠJ u",
      "al es",
      "Ġhe ad",
      "i ent",
      "Ġg overn",
      "Ġg roup",
      "ra ph",
      "Ġcharac ter",
      "Ġb r",
      "Ġg r",
      "Ġ ed",
      "Ġe ach",
      "Ġpo int",
      "ĠSept ember",
      "ĠA d",
      "ward s",
      "Ġcons id",
      "ut ion",
      "ĠD e",
      "ĠGer man",
      "Ġfollow ing",
      "ĠW orld",
      "Ġl ife",
      "Ġg u",
      "ĠCom m",
      "ĠAl l",
      "ĠAust ral",
      "an c",
      "Ġan n",
      "Ġcont ro",
      "ur al",
      "Ġf ive",
      "Ġv ar",
      "y s",
      "ĠH er",
      "ĠU S",
      "Ġatt ack",
      "g ed",
      "Ġ19 3",
      "ord ing",
      "Ġres ult",
      "Ġw ill",
      "in a",
      "c k",
      "Ġ Q",
      "Ġe ver",
      "ĠP ro",
      "Ġ19 1",
      "ĠE u",
      "Ġlar ge",
      "ĠM e",
      "ĠI I",
      "l ish",
      "ĠN orth",
      "l ing",
      "Ġb ook",
      "Ġre port",
      "on t",
      "ag ue",
      "ĠF ran",
      "b le",
      "ĠF or",
      "o x",
      "ac ed",
      "he l",
      "ĠJ une",
      "Ġt it",
      "end ed",
      "d om",
      "il t",
      "iv es",
      "Ġ1 4",
      "at s",
      "Ġp rom",
      "e b",
      "m ed",
      "Ġwe ek",
      "at ely",
      "av ing",
      "ore d",
      "Ġst r",
      "ĠJ an",
      "Ġs ince",
      "ĠSt ates",
      "Ġfin al",
      "Ġm ajor",
      "a x",
      "Ġs outh",
      "Ġrece ived",
      "ĠS outh",
      "iv ision",
      "ĠG u",
      "Ġn ame",
      "Ġpart ic",
      "er y",
      "Ġhe l",
      "olog y",
      "pt ion",
      "ĠChr ist",
      "Ġc are",
      "ĠO ct",
      "Ġpubl ic",
      "Ġre st",
      "Ġsy stem",
      "ect ed",
      "il ity",
      "ĠB e",
      "t ing",
      "ĠK ing",
      "Ġst ate",
      "Ġb att",
      "a e",
      "Ġwh at",
      "ag es",
      "u ary",
      "Ġl ast",
      "ra nd",
      "Ġdescrib ed",
      "ĠOct ober",
      "Ġl ine",
      "Ġcl ass",
      "Ġ $",
      "Ġd et",
      "iv ing",
      "ra ft",
      "ĠN ov",
      "Ġplay ed",
      "Ġpro t",
      "Ġinc re",
      "a ur",
      "rop ical",
      "Ġto ok",
      "Ġm ar",
      "Ġn ow",
      "if ied",
      "a im",
      "ĠP ar",
      "ion al",
      "g et",
      "ro te",
      "ant s",
      "od y",
      "Ġ [",
      "Ġ ]",
      "iv ely",
      "ĠY ork",
      "Ġbu ild",
      "Ġw orld",
      ". .",
      "Ġl ate",
      "ĠD ec",
      "y c",
      "Ġ2 5",
      "ĠJu ly",
      "Ġw rote",
      "em pt",
      "b all",
      "b y",
      "es p",
      "ĠEu rop",
      "re t",
      "Ġw on",
      "a pp",
      "ide o",
      "Ġspec ies",
      "s ion",
      "Ġch ild",
      "ian s",
      "Ġ. ..",
      "om et",
      "i od",
      "Ġp ort",
      "Ġm uch",
      "ĠC an",
      "ĠD uring",
      "Ġcon f",
      "Ġser v",
      "Ġc amp",
      "ect ion",
      "Ġre f",
      "Ġd ue",
      "ec h",
      "Ġsh ort",
      "ar n",
      "Ġal low",
      "Ġsing le",
      "ĠA pr",
      "ĠApr il",
      "Ġdif fer",
      "Ġj ust",
      "Ġde ath",
      "ic ally",
      "r act",
      "Ġst ar",
      "Ġs l",
      "Ġg un",
      "iss ion",
      "om in",
      "it al",
      "ĠM c",
      "ĠA nd",
      "Ġan other",
      "Ġinclud ed",
      "ĠM us",
      "Ġpos s",
      "a i",
      "Ġo ld",
      "Ġt ri",
      "h am",
      "Ġst orm",
      "ĠG e",
      "Ġv is",
      "ĠJan uary",
      "Ġ3 0",
      "Ġl ist",
      "Ġle ft",
      "Ġev en",
      "Ġp ar",
      "Ġwith in",
      "ĠEng land",
      "p le",
      "Ġpro g",
      "Ġapp ro",
      "g er",
      "it ions",
      "Ġn amed",
      "op s",
      "Ġb ased",
      "Ġest ab",
      "Ġ if",
      "in c",
      "Ġal though",
      "Ġatt empt",
      "Ġto p",
      "il ar",
      "Ġtr ack",
      "Ġver y",
      "Ġbel ie",
      "Ġb re",
      "Ġth ird",
      "ard s",
      "Ġh um",
      "Ġw ater",
      "ĠMar ch",
      "en e",
      "Ġg ames",
      "Ġor gan",
      "c hed",
      "or p",
      "ent ly",
      "Ġbe g",
      "Ġp ower",
      "Ġev ent",
      "Ġprev ious",
      "Ġfam ily",
      "Ġs chool",
      "m s",
      "Ġb est",
      "ur ric",
      "ul ation",
      "ĠNov ember",
      "an ces",
      "Ġper iod",
      "Ġrev iew",
      "Ġw ay",
      "ĠH is",
      "Ġm en",
      "as ter",
      "Ġex pl",
      "Ġh ome",
      "ĠEurop e",
      "Ġf ur",
      "qu e",
      "Ġgovern ment",
      "Ġt yp",
      "ĠB y",
      "ĠP h",
      "i ence",
      "Ġt urn",
      "Ġ19 2",
      "ĠDec ember",
      "le t",
      "at ure",
      "Ġc ap",
      "Ġth ose",
      "Ġh and",
      "ĠThe re",
      "av y",
      "Ġpl ace",
      "ac hed",
      "Ġm ed",
      "he st",
      "ĠC ity",
      "Ġst ory",
      "o int",
      "ag ed",
      "Ġbu ilt",
      "ed er",
      "am b",
      "Ġg reat",
      "en se",
      "Ġd r",
      "en ces",
      "Ġp erson",
      "iv en",
      "Ġcomm and",
      "Ġ1 00",
      "Ġk ill",
      "ĠF l",
      "ĠW hen",
      "oc i",
      "Ġmon th",
      "Ġs ent",
      "it ary",
      "el t",
      "Ġo pp",
      "Ġm ake",
      "Ġorigin al",
      "ivers ity",
      "o ad",
      "Ġ Â",
      "Ġh al",
      "Ġre qu",
      "v es",
      "id es",
      "ĠP r",
      "ĠN ational",
      "Ġen g",
      "g y",
      "n ess",
      "ent ion",
      "Ġ200 9",
      "ĠO r",
      "Ġ201 0",
      "Ġa uth",
      "Ġv ideo",
      "Ġ200 8",
      "b s",
      "Ġan t",
      "is on",
      "Ġm ark",
      "Ġd em",
      "Ġsu g",
      "ru ction",
      "ak es",
      "Ġpres ent",
      "l ine",
      "Ġle g",
      "Ġcl ub",
      "ĠM an",
      "ĠR iver",
      "ren ch",
      "iv al",
      "Ġv iew",
      "ĠB ro",
      "ri end",
      "o ard",
      "Ġre pl",
      "og raph",
      "Ġc apt",
      "al k",
      "Ġst ill",
      "Ġmov ed",
      "Ġloc al",
      "Ġst and",
      "en g",
      "Ġl ed",
      "Ġro le",
      "ot t",
      "ain ing",
      "l er",
      "Ġt erm",
      "Ġc ame",
      "ak en",
      "Ġd est",
      "Ġis s",
      "or ies",
      "un g",
      "s ide",
      "id ge",
      "m p",
      "Ġd ra",
      "Ġof ten",
      "Ġcomm on",
      "Ġadd ition",
      "Ġhist ory",
      "urric ane",
      "Ġc aus",
      "le v",
      "s h",
      "ĠCom p",
      "at ter",
      "Ġtr ad",
      "re w",
      "Ġf ew",
      "ĠN o",
      "ĠW e",
      "ĠCh ar",
      "Ġsug gest",
      "l u",
      "re ad",
      "is ter",
      "ĠA b",
      "Ġ200 7",
      "Ġne xt",
      "Ġeff ect",
      "Ġconsid ered",
      "Ġb as",
      "Ġde b",
      "Ġplay er",
      "ĠOn e",
      "i or",
      "Ġc our",
      "as tern",
      "Ġm id",
      "ĠT r",
      "ĠEng lish",
      "Ġhel p",
      "e ad",
      "Ġex per",
      "ut ed",
      "ĠF rench",
      "Ġcare er",
      "Ġs ide",
      "Ġsim ilar",
      "Ġrecord ed",
      "ĠB att",
      "ay s",
      "Ġr ight",
      "Ġ X",
      "Ġw in",
      "Ġin it",
      "Ġim port",
      "ĠA cc",
      "Ġre al",
      "s elf",
      "ĠR ec",
      "Ġcl aim",
      "Ġc over",
      "Ġar ch",
      "Ġcomp any",
      "b e",
      "in ing",
      "Ġto wn",
      "Ġpubl ished",
      "Ġs old",
      "Ġcontin ued",
      "Ġre fer",
      "Ġex c",
      "Ġw ind",
      "Ġdiffer ent",
      "Ġy ou",
      "Ġt ake",
      "Ġwith out",
      "tern ational",
      "Ġsong s",
      "ĠW ith",
      "y n",
      "Ġto t",
      "ĠP er",
      "ĠP ort",
      "Ġro ad",
      "Ġfor mer",
      "Ġ2 1",
      "Ġpol it",
      "Ġt w",
      "Ġt em",
      "ĠB ar",
      "Ġhe ld",
      "c hes",
      "ĠT e",
      "Ġm emb",
      "Ġam ong",
      "Ġle vel",
      "Ġ el",
      "ĠW ill",
      "n ing",
      "Ġf ield",
      "Ġm ag",
      "p ar",
      "Ġe lect",
      "n er",
      "im ent",
      "Ġa v",
      "it ar",
      "Ġd el",
      "us s",
      "Ġpro p",
      "Ġwrit ten",
      "inn ing",
      "it er",
      "res ent",
      "Ġever y",
      "ĠA m",
      "ĠSt ate",
      "es tern",
      "Ġ2 3",
      "ĠE ar",
      "Ġcomm un",
      "Ġhal f",
      "le ar",
      "y le",
      "ĠD ivision",
      "amp ions",
      "Ġ201 1",
      "Ġrele ase",
      "ri ed",
      "Ġfur ther",
      "ot s",
      "Ġbec ome",
      "Ġw est",
      "Ġ200 6",
      "ens ive",
      "ĠAcc ording",
      "Ġc r",
      "en c",
      "ro du",
      "Ġch urch",
      "ĠAl though",
      "Ġstr ong",
      "Ġf ore",
      "Ġh owever",
      "Ġday s",
      "ro y",
      "Ġfin d",
      "ĠCan ad",
      "Ġc ur",
      "ic es",
      "Ġe ast",
      "is ing",
      "ĠC ount",
      "Ġver sion",
      "Ġf oot",
      "Ġbe h",
      "Ġsp e",
      "au gh",
      "Ġpartic ular",
      "er ing",
      "Ġ &",
      "Ġm y",
      "Ġl ow",
      "ĠCh urch",
      "iz e",
      "eb ru",
      "ĠG ener",
      "Ġpro f",
      "Ġcomp et",
      "Ġpos ition",
      "Ġtit le",
      "Ġ2 4",
      "ĠW est",
      "Ġmil itary",
      "ĠR oman",
      "Ġcon v",
      "Ġauth or",
      "Ġ2 2",
      "Ġ2 6",
      "Ġapp e",
      "re en",
      "Ġor der",
      "ĠLe ague",
      "ou ther",
      "Ġs ol",
      "ron t",
      "itt le",
      "Ġcontro l",
      "outher n",
      "Ġt imes",
      "ĠS ong",
      "ac es",
      "f ric",
      "Ġb and",
      "ĠF ebru",
      "ĠFebru ary",
      "Ġf re",
      "pp ed",
      "Ġl ess",
      "Ġg ave",
      "Ġpro ject",
      "Ġv ict",
      "Ġdef e",
      "yl an",
      "ĠGe or",
      "os p",
      "ĠAs s",
      "Ġ !",
      "ĠD ylan",
      "Ġch ang",
      "Ġreport ed",
      "Ġmemb ers",
      "Ġn ort",
      "ĠP ark",
      "ric k",
      "Ġn ov",
      "Ġprodu ced",
      "Ġst at",
      "lev ision",
      "Ġtot al",
      "is c",
      "ar m",
      "et er",
      "her n",
      "Ġ201 2",
      "ay ing",
      "ĠO ld",
      "Ġar r",
      "iet y",
      "Ġc ult",
      "Ġpop ular",
      "Ġt er",
      "Ġf ire",
      "es c",
      "oun g",
      "ail ed",
      "Ġprodu ction",
      "ur s",
      "ap an",
      "Ġob s",
      "Ġt ropical",
      "he m",
      "ĠS im",
      "Ġ2 8",
      "ĠP ol",
      "ress ion",
      "Ġp ost",
      "Ġfor ces",
      "ĠSt e",
      "Ġcrit ic",
      "f ord",
      "ĠH a",
      "ĠJ apan",
      "Ġchild ren",
      "Ġhist or",
      "Ġp at",
      "Ġh aving",
      "us h",
      "ĠE d",
      "Ġinclud e",
      "al d",
      "ec hn",
      "r ing",
      "our s",
      "Ġsur v",
      "Ġinv ol",
      "Ġinf lu",
      "al ion",
      "n e",
      "Ġs k",
      "Ġl ost",
      "ren t",
      "Ġa ff",
      "at ic",
      "ĠS u",
      "Ġg iven",
      "Ġcount ry",
      "Ġw ant",
      "ab ly",
      "Ġrep resent",
      "w ork",
      "ĠE l",
      "Ġsign ific",
      "ĠC ent",
      "om en",
      "ĠD av",
      "Ġman ag",
      "op e",
      "pl oy",
      "ĠGener al",
      "Ġp ress",
      "Ġe qu",
      "ver s",
      "Ġ201 3",
      "g es",
      "Ġe ight",
      "ĠM iss",
      "Ġcom b",
      "re et",
      "Ġs it",
      "Ġs ite",
      "ad es",
      "Ġse en",
      "ir c",
      "Ġprog ram",
      "s p",
      "on es",
      "o on",
      "Ġm aking",
      "ĠA fric",
      "Ġn ever",
      "Ġmat ch",
      "r ation",
      "Ġf em",
      "Ġst ated",
      "Ġestab l",
      "Ã ¡",
      "it her",
      "Ġb ody",
      "Ġpl an",
      "Ġf act",
      "Ġre ad",
      "Ġor d",
      "Ġsh ould",
      "ĠWh ile",
      "ĠE v",
      "se qu",
      "Ġ5 0",
      "Ġreturn ed",
      "f ic",
      "at or",
      "ĠUn iversity",
      "olog ical",
      "Ġs oc",
      "Ġf t",
      "a un",
      "Ġ er",
      "Ġs ound",
      "Ġ19 0",
      "Ä ģ",
      "re m",
      "Ġh ow",
      "ap e",
      "ĠThe se",
      "Ġg en",
      "Ġis land",
      "ĠN e",
      "ĠAmeric a",
      "Ġc ou",
      "Ġst ruct",
      "Ġear l",
      "Ġship s",
      "Ġann oun",
      "Ġestabl ished",
      "ampions hip",
      "Ġg od",
      "Ġg round",
      "ĠJ ack",
      "Ġch art",
      "Ġpop ulation",
      "a ff",
      "re am",
      "Ġc at",
      "Ġd iv",
      "Ġre ached",
      "Ġj o",
      "g round",
      "Ġ2 7",
      "n a",
      "v iew",
      "re land",
      "Ġl ight",
      "Ġnot ed",
      "a ul",
      "k i",
      "Ġa way",
      "Ġf riend",
      "ĠI reland",
      "ĠBl ack",
      "il le",
      "ig ade",
      "us ed",
      "um ent",
      "in ation",
      "ff ic",
      "es e",
      "Ġl im",
      "ol l",
      "Ġthrough out",
      "Ġac ross",
      "ĠRe g",
      "Ġdevelop ed",
      "Ġthough t",
      "i ec",
      "ĠM ich",
      "ĠL ond",
      "Ġse ven",
      "Ġs omet",
      "Ġc ast",
      "ain t",
      "ord s",
      "st er",
      "Ġg l",
      "Ġpro c",
      "ĠWill iam",
      "ĠLond on",
      "Ġp ra",
      "Ġr ad",
      "Ġint rodu",
      "a f",
      "Ġg ood",
      "ĠF eder",
      "Ġus ing",
      "Ġhim self",
      "Ġdevelop ment",
      "Ġbl ack",
      "in ess",
      "om b",
      "Ġh ig",
      "ĠH ar",
      "Ġf elt",
      "id ence",
      "ree k",
      "ĠAustral ia",
      "Ġhum an",
      "Ġsignific ant",
      "Ġ ide",
      "ĠA ir",
      "ut es",
      "are n",
      "Ġw at",
      "Ġperform ed",
      "Ġb ar",
      "um p",
      "Ġimport ant",
      "m ost",
      "iv il",
      "ĠG l",
      "Ġad m",
      "ĠAt l",
      "it ive",
      "Ġn ight",
      "Ġwrit ing",
      "Ġf un",
      "ĠP al",
      "ĠR ich",
      "ĠE x",
      "Ġdest roy",
      "Ġf ather",
      "ĠM ag",
      "Ġmil es",
      "Ġb o",
      "ant ic",
      "Ġte levision",
      "ĠR oy",
      "Ġinter est",
      "Ġvar ious",
      "os aur",
      "Ġare as",
      "ie f",
      "Ġto ur",
      "im ately",
      "Ġwh ite",
      "Ġmod ern",
      "Ġf ull",
      "f ield",
      "Ġt en",
      "Ġd ied",
      "ĠC al",
      "Ġl ook",
      "ri e",
      "og n",
      "Ġen c",
      "Ġact iv",
      "a el",
      "a ign",
      "Ġw ent",
      "Ġl aw",
      "ĠR ober",
      "Ġne ed",
      "Ġt ro",
      "Ġev ents",
      "Ġpr im",
      "Ġdo es",
      "Ġsuccess ful",
      "ĠR oad",
      "ic o",
      "Ġre d",
      "iz ation",
      "Ġdisc over",
      "Ġplay ers",
      "Ġstart ed",
      "Ġm m",
      "ĠT o",
      "ra b",
      "ĠJ ames",
      "Ġdec l",
      "c on",
      "re g",
      "Ġb all",
      "ri pt",
      "Ġse e",
      "it ing",
      "Ġh ouse",
      "Ġfe et",
      "Ġform ed",
      "k s",
      "Ġw id",
      "our n",
      "Ġpo em",
      "Ġt echn",
      "Ġm ix",
      "Ġr ange",
      "ĠM ount",
      "Ġset t",
      "Ġperform ance",
      "ĠCount y",
      "re st",
      "Ġp ut",
      "Ġst yle",
      "Ġv ill",
      "Ġrel ations",
      "Ġbuild ing",
      "Ġa ge",
      "Ġs um",
      "Ġto o",
      "Ġfor ce",
      "ab or",
      "Ġcaus ed",
      "Ã Ń",
      "an a",
      "Ġk e",
      "in o",
      "ep end",
      "ar a",
      "ĠY ou",
      "al th",
      "ĠK e",
      "ubl ic",
      "Ġs w",
      "en ed",
      "ĠC ro",
      "Ġnov el",
      "Ġp ri",
      "i ers",
      "ist ed",
      "Ġ18 9",
      "Ġcre ated",
      "Ġoffic ial",
      "d ay",
      "f all",
      "id d",
      "ell ing",
      "as ing",
      "ĠS om",
      "Ġ200 4",
      "ĠAn g",
      "y m",
      "Ġp it",
      "Ġ200 5",
      "Ġrel ig",
      "Ġent ire",
      "g r",
      "l ess",
      "Ġs on",
      "al ity",
      "et h",
      "ĠO l",
      "Ġab le",
      "Ġco ast",
      "Ġpolit ical",
      "ĠH igh",
      "ri es",
      "ress ed",
      "Ġcharac ters",
      "ĠS ec",
      "Ġst e",
      "in al",
      "Ġg et",
      "ĠH am",
      "Ġother s",
      "Ġconst ruction",
      "Ġc ert",
      "Ġb ird",
      "Ġp red",
      "Ġprom ot",
      "as es",
      "Ġbatt le",
      "b r",
      "ĠT own",
      "Ġn ational",
      "way s",
      "ac y",
      "Ġocc ur",
      "om ing",
      "Ġv al",
      "ĠâĢ Ļ",
      "Ġf ig",
      "ĠS w",
      "amp le",
      "Ġl ik",
      "am ent",
      "Ġon ce",
      "ĠH ist",
      "pl ay",
      "fic ult",
      "Ġf ac",
      "Ġrem ained",
      "p or",
      "ĠC are",
      "ĠB ra",
      "Ġloc ated",
      "Ġm ount",
      "Ġtrad ition",
      "ent h",
      "iv id",
      "Ġro ck",
      "Ġsc ored",
      "Ġwork s",
      "Ġdif ficult",
      "ĠKing dom",
      "c raft",
      "Ġre du",
      "Ġ3 1",
      "Ġprodu c",
      "lect ed",
      "ĠIs land",
      "Ġcamp aign",
      "Ġgun s",
      "Ġt re",
      "Ġc ross",
      "ĠC up",
      "ĠM on",
      "Ġst ars",
      "ĠG rand",
      "Ġme et",
      "Ġcomple ted",
      "ĠAustral ian",
      "Ġannoun ced",
      "Ġr ank",
      "Ġreg ion",
      "Ġh old",
      "et t",
      "Ġs qu",
      "or se",
      "Ġn uc",
      "oun c",
      "o ff",
      "it ted",
      "Ġg row",
      "Ġsu per",
      "Ġcol le",
      "Ġgo al",
      "ĠComp any",
      "i que",
      "o id",
      "Ġf av",
      "ar ch",
      "Ġl ittle",
      "Ġcon n",
      "um b",
      "Ġle t",
      "Ġproc ess",
      "r ay",
      "en ced",
      "Ġf ight",
      "Ġf ront",
      "al y",
      "om p",
      "rough t",
      "Ġinst ead",
      "ĠA ct",
      "k y",
      "Ġc irc",
      "Ġ2 9",
      "Ġadd ed",
      "he re",
      "le et",
      "ĠM or",
      "Ġcon d",
      "om m",
      "Ġle ast",
      "du ct",
      "Ġfollow ed",
      "ĠB ill",
      "Ġkn ow",
      "Ġpe ak",
      "Ġappe ared",
      "Ġb orn",
      "Ġkill ed",
      "Ġs outhern",
      "ang u",
      "Ġorigin ally",
      "Ġmonth s",
      "o ice",
      "Ġw ife",
      "ur b",
      "Ġcom ment",
      "ĠAr my",
      "Ġst ri",
      "ĠDav id",
      "m ar",
      "Ġf if",
      "Ġm other",
      "Ġl oss",
      "ot a",
      "Ġ4 0",
      "Ġstud y",
      "i us",
      "Ġh urricane",
      "Ġass oci",
      "Ġw omen",
      "Ġc ell",
      "ect s",
      "ĠMus ic",
      "Ġ ident",
      "Ġm ass",
      "st on",
      "Ġe astern",
      "Ġn on",
      "Ġse x",
      "ant ry",
      "Ġag re",
      "Ġrelations hip",
      "Ġa ud",
      "Ġa ward",
      "Ġ200 3",
      "Ġcrit ics",
      "Ġbro ad",
      "yc l",
      "Ġan im",
      "Ġ18 5",
      "Ġevent ually",
      "Ġfeat ures",
      "Ġprof ess",
      "ol ution",
      "ĠG od",
      "ĠO ther",
      "Ġv oc",
      "Ġy oung",
      "ap er",
      "Ġrec ogn",
      "Ġ201 5",
      "g in",
      "at a",
      "Ġb us",
      "Ġl ive",
      "em ents",
      "ul ly",
      "ĠFran ce",
      "Ġa ver",
      "Ġfour th",
      "Ġt aken",
      "ĠS er",
      "em y",
      "Ġro ute",
      "Ġest im",
      "c her",
      "ĠT wo",
      "ĠB er",
      "Ġser ved",
      "l iam",
      "o res",
      "ist ic",
      "as k",
      "Ġcom mer",
      "Ġpro te",
      "ill a",
      "Ġapp oint",
      "ograph y",
      "z e",
      "ĠC o",
      "om es",
      "Ġl ack",
      "ch ie",
      "Ġdec ided",
      "Ġdam age",
      "am a",
      "ĠM ad",
      "un k",
      "Ġhe avy",
      "ign ed",
      "az ine",
      "Ġc or",
      "Ġb ase",
      "Ġe ither",
      "ĠI m",
      "ĠBatt alion",
      "i ation",
      "Ġf ar",
      "Ġcon dom",
      "Ġpro ble",
      "Ġse par",
      "Ġar m",
      "Ġimp ro",
      "Ġins p",
      "v al",
      "ĠP art",
      "ough t",
      "Ġspec ial",
      "Ġbeh ind",
      "ĠRober t",
      "Ġto get",
      "ic a",
      "ec ut",
      "ĠL ove",
      "Ġcol l",
      "Ġind ivid",
      "Ġbelie ved",
      "Ġtoget her",
      "id a",
      "Ġar g",
      "Ġqu ar",
      "enc y",
      "liam ent",
      "i pp",
      "av es",
      "Ġcl os",
      "ict ion",
      "ounc il",
      "c ial",
      "Ġm ater",
      "ric t",
      "Ġplay ing",
      "ĠRoy al",
      "ĠCare y",
      "Ġb urn",
      "Ġd ou",
      "ĠR ed",
      "ra p",
      "ach ing",
      "i ol",
      "i ber",
      "ĠM ed",
      "Ġmov e",
      "Ġ ir",
      "Ġ round",
      "Ġc reat",
      "Ġb i",
      "Ġl angu",
      "ĠH en",
      "ĠD u",
      "Ġv ol",
      "Ġde v",
      "Ġex ample",
      "Ġcl ose",
      "Ġac cept",
      "ĠMe x",
      "g g",
      "ĠS ome",
      "ĠM in",
      "Ġal most",
      "Ġ18 8",
      "al t",
      "est s",
      "Ġserv ice",
      "Ġlead ing",
      "ĠEurope an",
      "Ġs our",
      "Ġf all",
      "ĠR ep",
      "od es",
      "ĠWh ite",
      "Ġgener ally",
      "ĠFeder er",
      "Ġs aw",
      "at ors",
      "Ġc e",
      "Ġto wards",
      "Ġopen ed",
      "Ġele ments",
      "e al",
      "Ġm iss",
      "Ġ3 5",
      "u ter",
      "or ing",
      "Ġb rought",
      "ĠBr igade",
      "Ġgener al",
      "Ġweek s",
      "Ġm ot",
      "ĠP res",
      "ce ed",
      "ĠW ales",
      "ĠG ame",
      "ĠIn ternational",
      "Ġfin ished",
      "Ġdra w",
      "Ġ z",
      "st it",
      "Ġl aun",
      "ĠFl or",
      "Ġw all",
      "Ġh ost",
      "op h",
      "ĠK h",
      "ĠV iet",
      "Ġreg ular",
      "Ġhigh way",
      "Ġfeat ured",
      "c ast",
      "ĠI r",
      "Ġcent ral",
      "Ġair craft",
      "le ment",
      "ir l",
      "end ing",
      "Ġind ust",
      "b oard",
      "ĠE ast",
      "ord an",
      "oun ter",
      "Ġres ear",
      "Ġre b",
      "et work",
      "Ġcont ract",
      "Ġpoint s",
      "e um",
      "Ġf und",
      "Ġin form",
      "Ġdirect ed",
      "Ġ -",
      "Ġa ction",
      "Ġm i",
      "ĠM o",
      "ort s",
      "Ġsu ff",
      "ĠCh ampionship",
      "Ġme as",
      "Ġdirect or",
      "Ġprov ided",
      "h ing",
      "Ġc ut",
      "ic ated",
      "Ġre n",
      "ĠB o",
      "ĠF ollow",
      "ud e",
      "wo od",
      "Ġfl ood",
      "Ġresp ect",
      "Ġn ar",
      "ĠJ ordan",
      "Ġse qu",
      "Ġup on",
      "Ġme an",
      "ent ial",
      "ĠF rom",
      "ĠG al",
      "Ġappear ance",
      "n ed",
      "ĠJ ew",
      "Ġy ard",
      "ell ow",
      "Ġ18 6",
      "Ġearl ier",
      "s el",
      "y ing",
      "at in",
      "ĠP e",
      "ĠR ock",
      "ĠE m",
      "Ġk ing",
      "Ġc ost",
      "ĠC r",
      "Ġr ather",
      "ight s",
      "Ġ201 4",
      "Ġsub sequ",
      "Ġfem ale",
      "ĠAtl antic",
      "Ġtro ops",
      "t t",
      "Ġ Ã",
      "Ġ ill",
      "Ġre ve",
      "Ġst ru",
      "ĠO d",
      "ish ing",
      "med i",
      "ĠChrist ian",
      "Ġcur rent",
      "ĠM ary",
      "ĠO p",
      "Ġv e",
      "Ġr iver",
      "Ġlar gest",
      "Ġtra vel",
      "Ġvict ory",
      "ĠFollow ing",
      "ĠH ouse",
      "and er",
      "Ġem ploy",
      "Ġoper ations",
      "ĠHer o",
      "Ġparticular ly",
      "ĠGeor ge",
      "Ġmanag er",
      "Ġa chie",
      "er ous",
      "ou ri",
      "Ġpro b",
      "u le",
      "Ġfor t",
      "Ġopen ing",
      "Ġwant ed",
      "v ing",
      "Ġc op",
      "Ġb ur",
      "Ġ5 00",
      "eng th",
      "Ġnort hern",
      "a ult",
      "ĠM ac",
      "id s",
      "os ition",
      "Ġex ist",
      "Ġy ards",
      "Ġev idence",
      "ĠPl ay",
      "á ĥ",
      "it a",
      "Ġf oc",
      "Ġre ason",
      "ĠS l",
      "el er",
      "Ġcon duct",
      "ĠPh il",
      "ĠFlor ida",
      "e e",
      "i h",
      "o f",
      "y d",
      "he ad",
      "Ġm ember",
      "ĠW al",
      "ren g",
      "Ġpr act",
      "uc k",
      "v est",
      "Ġs aying",
      "om s",
      "ĠB ay",
      "ĠW il",
      "and ing",
      "ĠSt reet",
      "Ġout side",
      "Ġcre w",
      "Ġallow ed",
      "Ġposs ible",
      "Ġeng ine",
      "c o",
      "w est",
      "at ural",
      "ĠM ost",
      "ĠP aul",
      "Ġacc ount",
      "ĠOl iv",
      "u el",
      "Ġp ast",
      "Ġm er",
      "ĠM ark",
      "ir th",
      "Ġst age",
      "Ġne g",
      "ĠMc C",
      "Ġh ours",
      "Ġwh om",
      "Ġresp ons",
      "con om",
      "Ġc ase",
      "ing ton",
      "ag o",
      "art ment",
      "ĠMiss ouri",
      "Ġmater ial",
      "b or",
      "ill s",
      "Ġ200 1",
      "Ġdes p",
      "Ġwork ed",
      "Ġreg ard",
      "Ġf ree",
      "Ġm ach",
      "Ġl ength",
      "Ġn ec",
      "ĠB ut",
      "Ġg re",
      "Ġst reng",
      "Ġob ject",
      "Ġter rit",
      "ĠT ech",
      "Ġg old",
      "Ġpl ann",
      "ap s",
      "Ġwork ing",
      "Ġn omin",
      "ver t",
      "em s",
      "l us",
      "v ille",
      "ar ies",
      "ĠS an",
      "Ġl ove",
      "Ġr ul",
      "Ġpo or",
      "Ġqu ick",
      "Ġdesign ed",
      "c ent",
      "n ow",
      "u k",
      "ar i",
      "ĠV ir",
      "ĠQ u",
      "Ġfoot ball",
      "on st",
      "Ġm ult",
      "Ġh on",
      "ur t",
      "ĠB us",
      "Ġle arn",
      "ĠInd ian",
      "Ġconst ruct",
      "Ġpra ised",
      "p s",
      "Ġ esc",
      "Ġt reat",
      "ĠT or",
      "ĠB est",
      "Ġfor ced",
      "Ġst ation",
      "ĠD ay",
      "ĠF irst",
      "ess ion",
      "Ġrem ains",
      "Ġav ail",
      "r ated",
      "it es",
      "id ing",
      "Ġv iol",
      "ĠV al",
      "Ġ18 7",
      "Ġgo als",
      "Ġ197 0",
      "ĠMich ael",
      "u ation",
      "Ġth ink",
      "gy pt",
      "Ġwind s",
      "he ast",
      "Ġc ivil",
      "ĠS m",
      "ĠS qu",
      "Ġab ove",
      "Ġdis s",
      "Ġinv est",
      "Ġincre ased",
      "Ġp ers",
      "ĠH el",
      "ĠF e",
      "ĠE gypt",
      "hen s",
      "Ġprevious ly",
      "ĠÂ £",
      "w h",
      "it z",
      "ĠD esp",
      "ul a",
      "pp er",
      "ĠTh om",
      "Ġso on",
      "Ġrepl aced",
      "Ġcommer cial",
      "as ion",
      "rib uted",
      "ĠRich ard",
      "B C",
      "g l",
      "er ved",
      "Ġm ust",
      "ĠA c",
      "ĠA g",
      "ĠA pp",
      "Ġas k",
      "ĠG r",
      "Ġinter view",
      "Ġmain t",
      "ĠSu per",
      "Ġbus iness",
      "on c",
      "Ġc lear",
      "Ġp ain",
      "st e",
      "ol ic",
      "ĠW he",
      "ri ption",
      "ĠDesp ite",
      "ĠC orp",
      "Ġl y",
      "ĠD ep",
      "os ing",
      "ab it",
      "Ġwrit er",
      "ĠQ ue",
      "ĠBro wn",
      "Ġquar ter",
      "m ing",
      "Ġt rib",
      "Ġth reat",
      "ĠM ont",
      "Ġ200 0",
      "Ġun c",
      "ĠÂ °",
      "ĠHen ry",
      "A F",
      "at ory",
      "an ia",
      "Ġm ph",
      "ĠO s",
      "Ġun its",
      "one y",
      "ĠCanad a",
      "Ġestim ated",
      "Ã ³",
      "Ġp en",
      "ul f",
      "if f",
      "ak er",
      "ib ility",
      "Ġ199 0",
      "Ġspec ific",
      "Ġcour t",
      "ĠOld ham",
      "f ace",
      "Ġp ur",
      "Ġre act",
      "ac ing",
      "Ġ3 6",
      "Ġclaim ed",
      "ĠJapan ese",
      "Ġjo ined",
      "Ġhig hest",
      "b and",
      "m en",
      "ĠT imes",
      "ul ated",
      "ch ing",
      "Ġpl aced",
      "Ġcont r",
      "ĠCar ol",
      "Ġinvol ved",
      "ecut ive",
      "ĠPres ident",
      "f or",
      "Ġw estern",
      "Ġf ly",
      "ĠS un",
      "ĠG overn",
      "Ġpr iv",
      "Ġsign ed",
      "Ġsuggest ed",
      "le g",
      "ĠM os",
      "ell ed",
      "Ġ4 5",
      "Ġ18 3",
      "Ġpart s",
      "Ġsy n",
      "ĠC ard",
      "ĠM y",
      "ĠG old",
      "Ġint ens",
      "ĠInd ia",
      "ĠOliv ier",
      "Ġt ru",
      "Ġh ous",
      "ĠS chool",
      "th let",
      "ĠL ater",
      "Ġpro per",
      "Ġch ange",
      "Ġle ague",
      "Ġits elf",
      "ĠViet n",
      "m b",
      "Ġ esp",
      "Ġin j",
      "Ġd on",
      "ĠC ong",
      "ĠH all",
      "Ġsh ot",
      "Ġra p",
      "ann a",
      "Ġaver age",
      "ĠMex ico",
      "ĠIr ish",
      "Ġt aking",
      "Ġh ard",
      "ĠN ot",
      "um e",
      "Ġavail able",
      "Ġe y",
      "ur g",
      "Ġex cept",
      "Ġsc ene",
      "ron ic",
      "Ġtrans port",
      "Ġtrans fer",
      "Ġbro ther",
      "Ġbre ak",
      "read y",
      "Ġintrodu ced",
      "Ġh it",
      "ĠP ac",
      "Ġwh ose",
      "Ġhe av",
      "Ġrecord ing",
      "Ġvill age",
      "Ġw ood",
      "Ġst op",
      "Ġr ace",
      "ĠSt ar",
      "ĠV ar",
      "Ġsub ject",
      "Ġra il",
      "por ary",
      "ĠThom as",
      "g o",
      "r d",
      "x imately",
      "Ġs low",
      "Ġ6 0",
      "Ġph ys",
      "Ġgr ad",
      "Ġrelig ious",
      "Ġf r",
      "Ġm em",
      "Ġn etwork",
      "ac hel",
      "Ġg ra",
      "Ġed uc",
      "Ġto ld",
      "Ġn ine",
      "Ġn ames",
      "ĠN Y",
      "Ġab s",
      "Ġrem ov",
      "ĠBrit ain",
      "Ġshow s",
      "Ġ196 0",
      "Ġdam aged",
      "i qu",
      "Ġt est",
      "Ġc ru",
      "ar ily",
      "Ġp iec",
      "Ġind epend",
      "ĠSc ient",
      "Ġincre asing",
      "Ġturn ed",
      "Ġcap ital",
      "Ġsoc ial",
      "ĠRep ublic",
      "g u",
      "Ġa p",
      "or ation",
      "Ġc al",
      "en es",
      "Ġl ines",
      "Ġg ive",
      "ĠH urricane",
      "ĠP o",
      "ĠG reat",
      "Ġch ap",
      "ĠTh at",
      "ĠGu itar",
      "Ġstruct ure",
      "al ed",
      "ĠM any",
      "ĠAn t",
      "Ġfe el",
      "Ġnear ly",
      "Ġdet erm",
      "Ġappoint ed",
      "Ġdesp ite",
      "Ġs ize",
      "Ġc ycl",
      "od ies",
      "ĠUn ion",
      "ĠZ eal",
      "Ġcomple t",
      "Ġcommun ity",
      "h ib",
      "Ġ ?",
      "Ġb ill",
      "Ġin ternational",
      "Ġd en",
      "Ġd ate",
      "Ġl iter",
      "Ġe conom",
      "ĠL a",
      "ate g",
      "ran g",
      "Ġ18 4",
      "ĠAr t",
      "Ġsur round",
      "Ġpass ed",
      "Ġf ut",
      "Ġm ight",
      "ou l",
      "ec ially",
      "ir t",
      "Ġwith d",
      "ri an",
      "ber t",
      "hed ral",
      "Ġsc ore",
      "Ġim medi",
      "ines e",
      "Ġocc up",
      "Ġestab lish",
      "Ġdeb ut",
      "Ġinit ially",
      "osaur us",
      "Ġcert ain",
      "l ict",
      "Ġw inning",
      "Ġc as",
      "Ġp ot",
      "Ġto w",
      "ĠM a",
      "Ġal ready",
      "ĠE ver",
      "Ġde al",
      "Ġdis p",
      "Ġass ist",
      "Ġgo ing",
      "Ġpartic ip",
      "Ġarch ae",
      "ĠPac ific",
      "Ġf ailed",
      "ic ation",
      "Ġst ates",
      "ĠCh inese",
      "ĠEar ly",
      "ĠZeal and",
      "f ect",
      "h a",
      "i res",
      "Ġm ale",
      "Ġd oc",
      "ĠD on",
      "ra g",
      "ĠJ in",
      "ab ility",
      "Ġacc ording",
      "Ġra in",
      "Ġtra ining",
      "Ġfore st",
      "Ġlangu age",
      "Ġprob ably",
      "Ġesp ecially",
      "d en",
      "Ġf ood",
      "ĠS ing",
      "ĠC ath",
      "ĠD r",
      "Ġk ey",
      "Ġ200 2",
      "ific ation",
      "Ġdep ict",
      "Ġmin or",
      "Ġiss ue",
      "n el",
      "Ġa ut",
      "Ġd augh",
      "ĠP ri",
      "ĠF ilm",
      "ĠL aw",
      "Ġstud io",
      "ĠII I",
      "ĠT om",
      "ad y",
      "Ġfor ward",
      "ĠP eter",
      "Ġsp ent",
      "Ġinclud es",
      "fer ence",
      "Ġarr ived",
      "Ġord ered",
      "ĠHist ory",
      "ĠWhe eler",
      "a ut",
      "s hip",
      "is es",
      "ĠA wards",
      "ĠS ch",
      "il ities",
      "av al",
      "Ġar my",
      "Ġen ough",
      "Ġrem aining",
      "Ġbl ock",
      "Ġvis it",
      "ĠCanad ian",
      "ĠAng el",
      "ste in",
      "t ies",
      "on se",
      "Ġf ail",
      "Ġd ro",
      "ĠN avy",
      "Ġsomet imes",
      "Ġmix ed",
      "b ack",
      "l or",
      "z z",
      "Ġd i",
      "ĠT er",
      "ĠS oc",
      "ow l",
      "ĠR ose",
      "Ġcom e",
      "ĠU K",
      "Ġcomple te",
      "Ġappro ximately",
      "Ġreview s",
      "Ġrequ ired",
      "ĠAss oci",
      "or ial",
      "Ġto uch",
      "ĠC reek",
      "Ġl ower",
      "Ġl atter",
      "qu ar",
      "ran ch",
      "ric s",
      "Ġim m",
      "Ġcent er",
      "t o",
      "ĠM er",
      "ĠM et",
      "ly mp",
      "ĠP enn",
      "ĠIn f",
      "Ġrem ain",
      "Ġbeg inning",
      "ĠAfric a",
      "d own",
      "in ct",
      "in ist",
      "st ant",
      "ĠH ol",
      "ĠO lymp",
      "ĠVir gin",
      "Ġs em",
      "Ġw oman",
      "et ic",
      "ĠSt ud",
      "Ġj ourn",
      "Ġdec ision",
      "Ġprev ent",
      "Ġlim ited",
      "i est",
      "r ack",
      "u nder",
      "Ġh app",
      "Ġde ad",
      "Ġ3 8",
      "Ġus ually",
      "Ġbet ter",
      "Ġstud ents",
      "Ġaddition al",
      "Ġchang es",
      "ĠReg iment",
      "ed y",
      "Ġst ay",
      "ĠR out",
      "ĠR achel",
      "ĠN ort",
      "ĠJ e",
      "ab y",
      "Ġpres ident",
      "Ġem b",
      "Ġrun ning",
      "Ġresp onse",
      "Ġs ch",
      "ad ron",
      "Ġend ed",
      "Ġpos itive",
      "Ġlar ger",
      "ĠSc ott",
      "Ġconc ern",
      "g ar",
      "er at",
      "Ġm ention",
      "ĠT V",
      "ĠA ward",
      "Ġ8 0",
      "Ġqu est",
      "Ġsupport ed",
      "Ġtyp e",
      "Ġmag azine",
      "i os",
      "u als",
      "ĠF ort",
      "ĠJ er",
      "Ġnot es",
      "Ġdep ression",
      "Ġpol ice",
      "ĠChar les",
      "Ġpress ure",
      "Ġpri or",
      "o or",
      "re ak",
      "Ġw ide",
      "Ġb irth",
      "ent y",
      "Ġcomp l",
      "Ġam ount",
      "Ġbird s",
      "Ġsh own",
      "Ġ199 5",
      "Ġrel ated",
      "ĠBill board",
      "Ġf ace",
      "um ents",
      "Ġ7 5",
      "Ġfeat ure",
      "rie f",
      "Ġfif th",
      "Ġfut ure",
      "r at",
      "ar ing",
      "ĠH ot",
      "ĠU nder",
      "Ġapp l",
      "Ġ198 0",
      "Ġprov ide",
      "Ġdefe ated",
      "c om",
      "Ġc he",
      "an i",
      "Ġd er",
      "il s",
      "ĠC amp",
      "ĠH ill",
      "Ġst aff",
      "Ġan c",
      "art s",
      "Ġdiscover ed",
      "b ers",
      "Ġs at",
      "Ġs il",
      "Ġs ection",
      "ĠS y",
      "ĠP at",
      "ĠR es",
      "ĠO per",
      "if a",
      "Ġtem per",
      "ĠRout e",
      "h ou",
      "n ey",
      "Ġc m",
      "en on",
      "Ġd oll",
      "ĠB el",
      "ĠF I",
      "ĠW estern",
      "ri age",
      "ish op",
      "Ġbec oming",
      "ĠFran k",
      "Ġfre qu",
      "g ely",
      "o o",
      "ed ing",
      "Ġw ord",
      "ra el",
      "ĠL ight",
      "ĠCol le",
      "ĠA rab",
      "ĠR h",
      "ĠW ood",
      "and s",
      "Ġv ot",
      "Ġex am",
      "ect or",
      "ok e",
      "ke y",
      "oy s",
      "Ġsmall er",
      "u f",
      "it te",
      "Ġf low",
      "Ġd omin",
      "ĠT ur",
      "id ents",
      "un t",
      "ra w",
      "Ġint ended",
      "Ġper cent",
      "Ġsc reen",
      "Ġcol on",
      "Ġgroup s",
      "Ġide a",
      "ĠScient ology",
      "w ell",
      "in ent",
      "Ġf ir",
      "Ġf leet",
      "as y",
      "if orn",
      "ĠY ear",
      "Ġthem sel",
      "Ġmost ly",
      "Ġmet res",
      "Ġconc lud",
      "Ġdisc uss",
      "ĠHa ifa",
      "Ġrad io",
      "Ġprofess ional",
      "Ġthemsel ves",
      "g en",
      "s es",
      "er a",
      "an ies",
      "ĠR uss",
      "pl es",
      "Ġ201 6",
      "Ġmus ical",
      "Ġsur face",
      "Ġmin utes",
      "Ġcapt ured",
      "Ġrefer red",
      "ĠCro at",
      "Ġlik ely",
      "u ing",
      "an ish",
      "ĠS ince",
      "ĠM il",
      "im ate",
      "ce an",
      "ĠO ver",
      "ian o",
      "Ġoff ice",
      "Ġlar gely",
      "ĠPar liament",
      "Ġproble ms",
      "ĠAssoci ation",
      "r or",
      "Ġt ry",
      "Ġl ab",
      "Ġl ink",
      "ĠH ow",
      "ra in",
      "ĠU p",
      "Ġu nd",
      "Ġcont em",
      "Ġind ic",
      "Ġent ered",
      "Ġmed ia",
      "ĠPort ug",
      "Ġsum mer",
      "quar ters",
      "is er",
      "is ions",
      "Ġm akes",
      "ĠS ov",
      "ĠN ic",
      "ĠO tt",
      "Ġsh oot",
      "ĠV er",
      "Ġen s",
      "orn ing",
      "Ġmov ing",
      "ĠIs rael",
      "ĠEar th",
      "Ġobs erv",
      "Ġbroad cast",
      "Ġs elf",
      "Ġp air",
      "Ġcont ains",
      "ĠCal iforn",
      "Ġke ep",
      "Ġconstruct ed",
      "s en",
      "Ġin n",
      "Ġm oney",
      "le x",
      "ĠS am",
      "ĠC ouncil",
      "ĠB ey",
      "Ġcon cept",
      "Ġv oice",
      "ĠIn ter",
      "Ġse a",
      "Ġ199 9",
      "Ġp aren",
      "ĠS ur",
      "Ġn ature",
      "iv a",
      "ĠH aw",
      "ĠR oss",
      "ru it",
      "Ġad op",
      "yl v",
      "Ġgu itar",
      "Ġeffect s",
      "Ġce le",
      "ĠGal vest",
      "ĠGalvest on",
      "k an",
      "er gy",
      "Ġst ories",
      "ĠCh ic",
      "ony m",
      "Ġ195 0",
      "Ġgr ant",
      "Ġmajor ity",
      "Ġlist ed",
      "Ġrank ed",
      "ĠJew ish",
      "he t",
      "Ġcons ist",
      "Ġcre ate",
      "hest er",
      "Ġexper ience",
      "Ġresear ch",
      "m a",
      "Ġc le",
      "ur ity",
      "Ġle aving",
      "Ġun s",
      "Ġ7 0",
      "Ġmet h",
      "ĠBr ad",
      "Ġcrit ical",
      "Ġfav or",
      "Ġsch ol",
      "Ġb rief",
      "Ġth us",
      "ĠM art",
      "ow ler",
      "av en",
      "Ġ3 3",
      "ous ly",
      "Ġsc ript",
      "Ġear th",
      "Ġcontro ll",
      "Ġprim ary",
      "erat ops",
      "p ool",
      "r ison",
      "ou d",
      "ĠS erv",
      "Ġl ived",
      "Ġal ways",
      "ers hip",
      "Ġde ep",
      "ĠAn other",
      "Ġunder st",
      "Ġfilm s",
      "Ġloc ation",
      "ank s",
      "Ġrun s",
      "Ġoffic ers",
      "Ġgod s",
      "Ġagre ed",
      "Ġly rics",
      "Ġ ri",
      "at ively",
      "ch ange",
      "te en",
      "Ġra re",
      "osp ital",
      "Ġlaun ched",
      "ĠCaliforn ia",
      "d le",
      "Ġc ounter",
      "Ġd ed",
      "ac hes",
      "ĠP et",
      "ill ery",
      "ord er",
      "land s",
      "Ġatt ract",
      "Ġpre m",
      "Ġteam s",
      "Ġmin ute",
      "Ġcult ure",
      "Ġquick ly",
      "ĠCath olic",
      "a wn",
      "r as",
      "Ġ x",
      "Ġf ans",
      "ĠM r",
      "ĠI f",
      "ĠF ore",
      "ĠF orm",
      "Ġme ant",
      "Ġam b",
      "Ġepis odes",
      "Ġprop osed",
      "Ġoccur red",
      "ĠChic ago",
      "l o",
      "o ir",
      "ĠS aint",
      "Ġl o",
      "im um",
      "Ġwhe ther",
      "Ġad apt",
      "Ġ4 00",
      "Ġass igned",
      "Ġacc ess",
      "Ġincre ase",
      "A S",
      "Ġc red",
      "Ġd ram",
      "Ġh op",
      "ĠT re",
      "ĠB ec",
      "ĠL atin",
      "um n",
      "Ġ3 2",
      "Ġpo et",
      "Ġcan n",
      "Ġprodu ct",
      "Ġform s",
      "Ġtra ffic",
      "Ġappear s",
      "Ġdefe at",
      "Ġchang ed",
      "Ġdestroy ed",
      "i ant",
      "Ġt ons",
      "Ġl og",
      "ĠB en",
      "Ġas p",
      "ĠN ix",
      "Ġcomm ission",
      "Ġtr ade",
      "ĠEn ter",
      "ĠAr ch",
      "Ġlong er",
      "ĠBatt le",
      "ĠCent ral",
      "Ġmean ing",
      "m as",
      "on ed",
      "Ġb ound",
      "an ced",
      "ro l",
      "Ġm om",
      "ĠS ever",
      "ĠC amb",
      "ĠM ey",
      "ĠH o",
      "ort un",
      "Ġr an",
      "ĠAl ice",
      "Ġj ob",
      "Ġthem e",
      "Ġnum bers",
      "Ġpr inc",
      "ĠSc ot",
      "Ġ194 0",
      "und red",
      "Ġsold iers",
      "Ġcompet ition",
      "Ġnuc le",
      "Ã³ n",
      "e x",
      "Ġb omb",
      "Ġre ach",
      "Ġg irl",
      "th ing",
      "ĠD j",
      "Ġk il",
      "Ġle ave",
      "ĠIt al",
      "Ġnew sp",
      "Ġac qu",
      "Ġcar ried",
      "ĠTe x",
      "Ġaward ed",
      "Ġfoc us",
      "ĠNort hern",
      "t ar",
      "Ġ3 00",
      "Ġ199 8",
      "Ġconc ert",
      "Ġconsid er",
      "Ġconduct ed",
      "Ġpriv ate",
      "Ġdaugh ter",
      "N A",
      "en ing",
      "an as",
      "ro wn",
      "ĠT w",
      "Ġn atural",
      "ow s",
      "ĠJ am",
      "Ġover all",
      "Ġen v",
      "Ġ9 0",
      "Ġrecord s",
      "ĠSec ond",
      "Ġsubsequ ently",
      "c ing",
      "it ation",
      "Ġc ause",
      "Ġto urn",
      "ĠT ra",
      "Ġth ick",
      "Ġe mer",
      "ĠB C",
      "im in",
      "us band",
      "ĠD el",
      "ĠL iver",
      "Ġde g",
      "Ġpl ans",
      "ĠV illa",
      "ĠAl kan",
      "Ġdis m",
      "Ġ193 0",
      "Ġant i",
      "Ġfight ing",
      "b ar",
      "g a",
      "l in",
      "Ġ ult",
      "Ġt akes",
      "Ġs us",
      "ed s",
      "it or",
      "it ude",
      "Ġb ox",
      "Ġre in",
      "Ġl ay",
      "Ġg raph",
      "Ġk ind",
      "ect ive",
      "Ġwho le",
      "Ġ199 3",
      "Ġele ction",
      "ĠPol ish",
      "Ġinflu ence",
      "Ġcomment ed",
      "Ġdou ble",
      "Ġindust ry",
      "k en",
      "Ġ +",
      "ĠT ay",
      "ĠT our",
      "ĠM inn",
      "Ġser ious",
      "Ġfin ally",
      "Ġbr ing",
      "Ġask ed",
      "ĠNix on",
      "ĠLiver pool",
      "Ġt ar",
      "Ġd ig",
      "Ġth row",
      "all ed",
      "Ġu pper",
      "Ġcomp ared",
      "ĠIt s",
      "Ġj ud",
      "Ġcent re",
      "Ġend ing",
      "ĠGeor g",
      "ĠSom ers",
      "stit ute",
      "Ġgre ater",
      "Ġmeth od",
      "n y",
      "Ġp urch",
      "Ġd one",
      "Ġre ject",
      "ĠM al",
      "ĠB ack",
      "ol k",
      "ĠL ady",
      "ist ics",
      "ell s",
      "Ġun able",
      "Ġ4 7",
      "Ġfl ight",
      "olog ist",
      "Ġpos itions",
      "Ġacc omp",
      "itt ing",
      "Ġmar ried",
      "itte e",
      "ĠTex as",
      "I I",
      "g ing",
      "Ġo ur",
      "Ġb ig",
      "al ys",
      "ĠH um",
      "ĠF oot",
      "Ġ3 9",
      "ail y",
      "Ġbuild ings",
      "Ġperson al",
      "Ġmark et",
      "Ġstand ard",
      "ĠMos ley",
      "Ġrap id",
      "ĠSomers et",
      "ĠT ropical",
      "ĠS ol",
      "Ġg ot",
      "ĠR ob",
      "ag on",
      "Ġy et",
      "ĠV ict",
      "Ġpart y",
      "Ġear ned",
      "Ġbook s",
      "T V",
      "Ġm or",
      "Ġd ark",
      "ĠT enn",
      "ĠC our",
      "Ġl iving",
      "Ġhe ro",
      "ĠO ut",
      "ĠTh ree",
      "Ġ199 6",
      "Ġcol lect",
      "Ġph ot",
      "Ġconf lict",
      "Ġbeg ins",
      "Ġiss ued",
      "ĠBus ch",
      "c ar",
      "Ġm ur",
      "Ġd om",
      "ĠS al",
      "ad a",
      "ĠB ob",
      "ĠF in",
      "ĠL ake",
      "ri a",
      "Ġdirect ly",
      "Ġmark ed",
      "Ġterm s",
      "augh t",
      "Ġtradition al",
      "h ouse",
      "Ġs al",
      "um ed",
      "Ġhe alth",
      "Ġab and",
      "Ġsc enes",
      "ath an",
      "Ġmov ement",
      "ĠSp anish",
      "ĠChrist mas",
      "Ġmar riage",
      "Ġstat us",
      "ĠAfric an",
      "ĠTay lor",
      "re y",
      "Ġp ath",
      "ĠF owler",
      "ber y",
      "ĠComm and",
      "Ġsl ight",
      "Ġhelp ed",
      "Ġfig ure",
      "ĠSever al",
      "r ical",
      "it ch",
      "Ġb atter",
      "Ġp il",
      "ĠC ross",
      "Ġn orm",
      "ad m",
      "ad ed",
      "ĠD em",
      "ĠL ou",
      "od on",
      "ew ay",
      "ĠSt orm",
      "Ġsc hed",
      "emb ly",
      "Ġstart ing",
      "Ġattack s",
      "Ġschool s",
      "Ġexper i",
      "Ġinform ation",
      "Ġsuff ered",
      "Ġplann ed",
      "b ury",
      "an z",
      "Ġh usband",
      "Ġl if",
      "ĠI ll",
      "Ġg iving",
      "ĠN or",
      "ĠJ ust",
      "Ġr h",
      "Ġperform ances",
      "Ġassoci ated",
      "Ġinsp ired",
      "Ġsour ce",
      "ĠInf antry",
      "ĠSov iet",
      "i en",
      "Ġd ivision",
      "ce nd",
      "ĠJ ane",
      "if y",
      "Ġpl ot",
      "Ġcl osed",
      "ound s",
      "ib ly",
      "Ġtrans l",
      "ĠCon t",
      "Ġpresent ed",
      "Ġinit ial",
      "Ġcondom s",
      "ĠPart y",
      "Ġmach ine",
      "t ation",
      "at re",
      "ic an",
      "ĠT rans",
      "im b",
      "ĠG o",
      "Ġv ia",
      "ĠIn n",
      "Ġro om",
      "Ġim age",
      "Ġra ised",
      "Ġpres ence",
      "Ġpol ic",
      "Ġgreat est",
      "ĠSer ies",
      "Ġeduc ation",
      "a res",
      "l ike",
      "s ylv",
      "u ff",
      "er ve",
      "Ġf ell",
      "Ġin ters",
      "Ġp ay",
      "Ġh undred",
      "ĠT em",
      "ĠS ix",
      "ĠC ast",
      "ol f",
      "ĠL ong",
      "Ġch all",
      "ect ions",
      "Ġun it",
      "Ġus es",
      "Ġ4 2",
      "Ġwrit ers",
      "Ġcontin ue",
      "Ġnear by",
      "ĠCl ub",
      "ĠPar is",
      "orp or",
      "ĠCarol ina",
      "Ġdoc ument",
      "ĠPenn sylv",
      "ĠVirgin ia",
      "Ġsus p",
      "i ated",
      "r ate",
      "Ġp ark",
      "ĠR am",
      "ĠL ive",
      "Ġpre p",
      "iam i",
      "Ġcomple x",
      "Ġcover ed",
      "Ã¡ n",
      "Ġcolle ction",
      "Ġcycl one",
      "r id",
      "Ġt alk",
      "it ect",
      "Ġh abit",
      "ĠM ill",
      "im ony",
      "Ġcon ver",
      "ess a",
      "Ġsp ace",
      "Ġcomp osed",
      "Ġen j",
      "Ġwe ap",
      "inn er",
      "Ġann ual",
      "Ġserv ices",
      "ĠAc ad",
      "ĠQue en",
      "ĠColle ge",
      "ĠMey er",
      "in y",
      "Ġb odies",
      "Ġre ally",
      "et her",
      "ĠW ater",
      "Ġse v",
      "Ġ199 7",
      "Ġnum erous",
      "Ġmet al",
      "Ġext ended",
      "Ġcommand er",
      "Ġcat hedral",
      "Ġwat ers",
      "Ġfig ures",
      "Ġproduc er",
      "Ġterrit ory",
      "onc Ã©",
      "ĠBey oncÃ©",
      "e en",
      "t ain",
      "Ġh ot",
      "Ġth ings",
      "ĠM iami",
      "ur ies",
      "ĠD an",
      "ĠD am",
      "ĠL o",
      "ĠJ ose",
      "ant a",
      "pt ed",
      "port s",
      "ĠGerman y",
      "ĠMus eum",
      "Ġsomet hing",
      "Ġvoc als",
      "Ġprote ins",
      "Ġindivid ual",
      "p ed",
      "z y",
      "ĠThe ir",
      "ĠG ames",
      "ĠN ations",
      "ip al",
      "Ġ4 4",
      "Ġfin anc",
      "Ġart ist",
      "Ġoper ation",
      "rick et",
      "Ġnec ess",
      "Ġinvest ig",
      "e v",
      "u it",
      "Ġt ax",
      "Ġs af",
      "Ġp ick",
      "Ġm orning",
      "est ival",
      "ĠE r",
      "ap o",
      "Ġcomp anies",
      "ĠTh rough",
      "Ġhigh ly",
      "Ġimp act",
      "Ġattack ed",
      "Ġdet ail",
      "Ġattempt s",
      "Ġrequ est",
      "ĠSom al",
      "Ġstreng th",
      "ĠServ ice",
      "d ing",
      "p ole",
      "v ement",
      "Ġb ad",
      "ĠC er",
      "ĠC rit",
      "om er",
      "ad o",
      "ad ium",
      "ĠG ar",
      "Ġrec over",
      "Ġdis e",
      "rib ution",
      "Ġver s",
      "Ġinter act",
      "Ġsy mb",
      "Ġart illery",
      "Ġconf ir",
      "Ġspe ed",
      "Ġer a",
      "Ġimmedi ately",
      "adm ium",
      "ĠPennsylv ania",
      "t rack",
      "at ives",
      "is ation",
      "is her",
      "Ġp urs",
      "Ġp iano",
      "ĠA I",
      "ĠC ons",
      "ĠM ajor",
      "Ġst one",
      "ĠL i",
      "Ġpl at",
      "Ġsp ir",
      "Ġdist ance",
      "Ġallow ing",
      "Ġtrack s",
      "Ġpower ful",
      "Ġsit uation",
      "ĠJack son",
      "Ġnuc lear",
      "ĠSqu adron",
      "Ġremov ed",
      "Ġcele br",
      "Ġkil omet",
      "h ic",
      "on na",
      "Ġin tern",
      "and id",
      "ag ing",
      "Ġr ate",
      "Ġse lected",
      "Ġse arch",
      "Ġk ick",
      "ip le",
      "Ġ5 1",
      "Ġoff ered",
      "Ġsec ret",
      "Ġbl ood",
      "Ġstud ies",
      "Ġins ide",
      "Ġadv ance",
      "Ġvar iety",
      "Ġfriend s",
      "Ġneed ed",
      "Ġpeak ed",
      "Ġsex ual",
      "Ġpur p",
      "ĠScot land",
      "ĠVict or",
      "Ġm ole",
      "ou ra",
      "ĠS ir",
      "Ġn ative",
      "ĠB et",
      "ĠB oth",
      "Ġst ra",
      "ĠR ad",
      "ĠL os",
      "ri al",
      "Ġ18 2",
      "iz ing",
      "Ġpre c",
      "Ġte xt",
      "Ġ199 1",
      "Ġme ans",
      "Ġco ach",
      "ĠChr is",
      "Ġcount ries",
      "Ġhead quarters",
      "Ġattempt ed",
      "Ġcop ies",
      "ĠFoot ball",
      "ã ĥ",
      "im s",
      "ĠL and",
      "Ġr ule",
      "ĠCh ina",
      "Ġsc oring",
      "Ġadv ant",
      "Ġhand s",
      "Ġwid ely",
      "Ġrespect ively",
      "ĠOp en",
      "Ġrespons ible",
      "Ġcas ual",
      "a en",
      "h ood",
      "w are",
      "al ty",
      "Ġm ax",
      "Ġh ar",
      "ĠA lex",
      "Ġg rand",
      "Ġan g",
      "se nd",
      "ann el",
      "Ġset s",
      "Ġext rem",
      "Ġdescrib es",
      "Ġappear ances",
      "Ġcontro vers",
      "ĠAnd erson",
      "Ġgen us",
      "Ġhig her",
      "ĠDep artment",
      "Ġtouch down",
      "he w",
      "ĠA re",
      "ir on",
      "ĠP ost",
      "ĠO ff",
      "ap ed",
      "end s",
      "Ġcan c",
      "Ġ199 2",
      "Ġland s",
      "Ġconst it",
      "Ġcour se",
      "Ġmid dle",
      "Ġmag n",
      "Ġobs erved",
      "ĠBra at",
      "ĠCorp s",
      "Ġheav ily",
      "M S",
      "m e",
      "v in",
      "Ġ ess",
      "ĠT ime",
      "ĠB re",
      "ĠN es",
      "ill ed",
      "Ġse em",
      "ell ig",
      "Ġcomp os",
      "ran e",
      "Ġad ult",
      "Ġdis play",
      "Ġ199 4",
      "Ġrel ief",
      "ĠRe v",
      "Ġbel ow",
      "Ġsix th",
      "sh ire",
      "Ġadm inist",
      "Ġredu ced",
      "Ġmeet ing",
      "Ġx enon",
      "Ġenj oy",
      "l ight",
      "es ota",
      "ĠM idd",
      "ul ations",
      "ĠL ike",
      "um ber",
      "Ġ3 7",
      "Ġ4 8",
      "Ġj ump",
      "Ġ7 6",
      "Ġact ive",
      "Ġbl ue",
      "Ġsing er",
      "Ġmat ches",
      "Ġresult ed",
      "Ġopp ortun",
      "Ġaud ience",
      "for ce",
      "Ġconclud ed",
      "ĠMinn esota",
      "u ated",
      "Ġw ing",
      "Ġc orn",
      "is k",
      "Ġp aper",
      "Ġh ol",
      "Ġh our",
      "ĠC or",
      "ĠC apt",
      "ĠP it",
      "ĠE mp",
      "ak apo",
      "ran ce",
      "Ġshe ll",
      "Ġinst it",
      "ink el",
      "Ġactiv ity",
      "Ġactiv ities",
      "ĠSm ith",
      "Ġtru e",
      "Ġcomplet ely",
      "r is",
      "Ġc er",
      "is l",
      "Ġb ene",
      "Ġp u",
      "ro om",
      "ĠS outhern",
      "ĠB ol",
      "Ġst ating",
      "ut ch",
      "ĠG reen",
      "ĠJ ul",
      "Ġdis app",
      "Ġman aged",
      "ath us",
      "ĠSe a",
      "ĠCent er",
      "ĠTown send",
      "Ġreve aled",
      "ĠRose bery",
      "Ġquest ion",
      "Ġcontem porary",
      "ĠHaw ai",
      "ĠItal ian",
      "ĠMeyer be",
      "i pped",
      "ã ģ",
      "Ġw ound",
      "ĠD ist",
      "ĠF ur",
      "ĠJ im",
      "if t",
      "ĠK a",
      "Ġqu ality",
      "erv ation",
      "Ġref used",
      "Ġdr um",
      "Ġlevel s",
      "Äģ d",
      "Ġdecl ared",
      "Ġtre es",
      "Ġsepar ate",
      "ĠNic ole",
      "ĠMeyerbe er",
      "b ed",
      "b ird",
      "Ġp un",
      "ac her",
      "ĠF inkel",
      "ect ing",
      "ĠTh under",
      "row d",
      "ĠCon f",
      "Ġbro wn",
      "ĠFor ce",
      "Ġappro ach",
      "ĠWal pole",
      "Ġcontr ast",
      "ĠBec ause",
      "ĠFinkel stein",
      "ing u",
      "Ġto day",
      "Ġd u",
      "ĠT essa",
      "st one",
      "ĠC at",
      "Ġl ot",
      "ĠD o",
      "est ic",
      "Ġun iversity",
      "per or",
      "Ġrec ent",
      "ĠY ue",
      "Ġwe bs",
      "ĠSh iva",
      "Ġback ground",
      "Ġrece ption",
      "Ġ15 0",
      "Ġfeat uring",
      "Ġresp ond",
      "Ġcar ry",
      "Ġmod el",
      "Ġtyp ically",
      "Ġhistor ical",
[...]
